#ifndef MODEL_H
#define MODEL_H

unsigned int model_len = 20776;
unsigned char model[] = {
 0x1c, 0x00, 0x00, 0x00, 0x54, 0x46, 0x4c, 0x33, 0x14, 0x00, 0x20, 0x00,
  0x04, 0x00, 0x08, 0x00, 0x0c, 0x00, 0x10, 0x00, 0x14, 0x00, 0x00, 0x00,
  0x18, 0x00, 0x1c, 0x00, 0x14, 0x00, 0x00, 0x00, 0x03, 0x00, 0x00, 0x00,
  0x18, 0x00, 0x00, 0x00, 0x38, 0x00, 0x00, 0x00, 0xcc, 0x01, 0x00, 0x00,
  0x38, 0x00, 0x00, 0x00, 0x74, 0x01, 0x00, 0x00, 0xf0, 0x00, 0x00, 0x00,
  0x08, 0x00, 0x00, 0x00, 0x90, 0x15, 0x00, 0x00, 0xb4, 0x14, 0x00, 0x00,
  0x18, 0x14, 0x00, 0x00, 0x6c, 0x12, 0x00, 0x00, 0xd8, 0x11, 0x00, 0x00,
  0x38, 0x11, 0x00, 0x00, 0x98, 0x10, 0x00, 0x00, 0x68, 0x0f, 0x00, 0x00,
  0x01, 0x00, 0x00, 0x00, 0xb8, 0x01, 0x00, 0x00, 0x2f, 0x00, 0x00, 0x00,
  0xb8, 0x50, 0x00, 0x00, 0xb4, 0x50, 0x00, 0x00, 0xe4, 0x4f, 0x00, 0x00,
  0x54, 0x4f, 0x00, 0x00, 0xd4, 0x4e, 0x00, 0x00, 0x64, 0x4e, 0x00, 0x00,
  0x08, 0x4e, 0x00, 0x00, 0xa4, 0x4d, 0x00, 0x00, 0x44, 0x4d, 0x00, 0x00,
  0xe4, 0x4c, 0x00, 0x00, 0x88, 0x1a, 0x00, 0x00, 0x2c, 0x16, 0x00, 0x00,
  0x90, 0x15, 0x00, 0x00, 0x84, 0x50, 0x00, 0x00, 0x80, 0x50, 0x00, 0x00,
  0x7c, 0x50, 0x00, 0x00, 0x78, 0x50, 0x00, 0x00, 0x74, 0x50, 0x00, 0x00,
  0x70, 0x50, 0x00, 0x00, 0x6c, 0x50, 0x00, 0x00, 0x68, 0x50, 0x00, 0x00,
  0x64, 0x50, 0x00, 0x00, 0x60, 0x50, 0x00, 0x00, 0x5c, 0x50, 0x00, 0x00,
  0x58, 0x50, 0x00, 0x00, 0x54, 0x50, 0x00, 0x00, 0x50, 0x50, 0x00, 0x00,
  0x4c, 0x50, 0x00, 0x00, 0x48, 0x50, 0x00, 0x00, 0x44, 0x50, 0x00, 0x00,
  0x40, 0x50, 0x00, 0x00, 0x3c, 0x50, 0x00, 0x00, 0x38, 0x50, 0x00, 0x00,
  0x34, 0x50, 0x00, 0x00, 0x30, 0x50, 0x00, 0x00, 0x2c, 0x50, 0x00, 0x00,
  0x28, 0x50, 0x00, 0x00, 0x24, 0x50, 0x00, 0x00, 0x20, 0x50, 0x00, 0x00,
  0x1c, 0x50, 0x00, 0x00, 0x18, 0x50, 0x00, 0x00, 0x14, 0x50, 0x00, 0x00,
  0x10, 0x50, 0x00, 0x00, 0x0c, 0x50, 0x00, 0x00, 0x08, 0x50, 0x00, 0x00,
  0x04, 0x50, 0x00, 0x00, 0xb8, 0x00, 0x00, 0x00, 0x01, 0x00, 0x00, 0x00,
  0x10, 0x00, 0x00, 0x00, 0x00, 0x00, 0x0a, 0x00, 0x10, 0x00, 0x0c, 0x00,
  0x08, 0x00, 0x04, 0x00, 0x0a, 0x00, 0x00, 0x00, 0x0c, 0x00, 0x00, 0x00,
  0x1c, 0x00, 0x00, 0x00, 0x20, 0x00, 0x00, 0x00, 0x0f, 0x00, 0x00, 0x00,
  0x73, 0x65, 0x72, 0x76, 0x69, 0x6e, 0x67, 0x5f, 0x64, 0x65, 0x66, 0x61,
  0x75, 0x6c, 0x74, 0x00, 0x01, 0x00, 0x00, 0x00, 0x14, 0x00, 0x00, 0x00,
  0x01, 0x00, 0x00, 0x00, 0x24, 0x00, 0x00, 0x00, 0x08, 0x00, 0x0c, 0x00,
  0x08, 0x00, 0x04, 0x00, 0x08, 0x00, 0x00, 0x00, 0x2c, 0x00, 0x00, 0x00,
  0x04, 0x00, 0x00, 0x00, 0x07, 0x00, 0x00, 0x00, 0x64, 0x65, 0x6e, 0x73,
  0x65, 0x5f, 0x32, 0x00, 0x3e, 0xb1, 0xff, 0xff, 0x04, 0x00, 0x00, 0x00,
  0x0b, 0x00, 0x00, 0x00, 0x64, 0x65, 0x6e, 0x73, 0x65, 0x5f, 0x69, 0x6e,
  0x70, 0x75, 0x74, 0x00, 0x01, 0x00, 0x00, 0x00, 0x0c, 0x00, 0x00, 0x00,
  0x08, 0x00, 0x0c, 0x00, 0x04, 0x00, 0x08, 0x00, 0x08, 0x00, 0x00, 0x00,
  0x08, 0x00, 0x00, 0x00, 0x2e, 0x00, 0x00, 0x00, 0x13, 0x00, 0x00, 0x00,
  0x6d, 0x69, 0x6e, 0x5f, 0x72, 0x75, 0x6e, 0x74, 0x69, 0x6d, 0x65, 0x5f,
  0x76, 0x65, 0x72, 0x73, 0x69, 0x6f, 0x6e, 0x00, 0x8a, 0xb1, 0xff, 0xff,
  0x04, 0x00, 0x00, 0x00, 0x10, 0x00, 0x00, 0x00, 0x31, 0x2e, 0x31, 0x31,
  0x2e, 0x30, 0x00, 0x00, 0x00, 0x00, 0x00, 0x00, 0x00, 0x00, 0x00, 0x00,
  0x0f, 0x00, 0x00, 0x00, 0x4d, 0x4c, 0x49, 0x52, 0x20, 0x43, 0x6f, 0x6e,
  0x76, 0x65, 0x72, 0x74, 0x65, 0x64, 0x2e, 0x00, 0x00, 0x00, 0x0e, 0x00,
  0x18, 0x00, 0x04, 0x00, 0x08, 0x00, 0x0c, 0x00, 0x10, 0x00, 0x14, 0x00,
  0x0e, 0x00, 0x00, 0x00, 0x14, 0x00, 0x00, 0x00, 0xc8, 0x00, 0x00, 0x00,
  0xcc, 0x00, 0x00, 0x00, 0xd0, 0x00, 0x00, 0x00, 0x54, 0x01, 0x00, 0x00,
  0x2d, 0x00, 0x00, 0x00, 0x88, 0x4e, 0x00, 0x00, 0x3c, 0x4e, 0x00, 0x00,
  0xd8, 0x4d, 0x00, 0x00, 0x58, 0x4d, 0x00, 0x00, 0xc0, 0x4c, 0x00, 0x00,
  0x50, 0x4c, 0x00, 0x00, 0xec, 0x4b, 0x00, 0x00, 0x8c, 0x4b, 0x00, 0x00,
  0x2c, 0x4b, 0x00, 0x00, 0xcc, 0x4a, 0x00, 0x00, 0x70, 0x18, 0x00, 0x00,
  0x14, 0x14, 0x00, 0x00, 0x78, 0x13, 0x00, 0x00, 0x9c, 0x12, 0x00, 0x00,
  0x00, 0x12, 0x00, 0x00, 0x44, 0x11, 0x00, 0x00, 0xcc, 0x10, 0x00, 0x00,
  0x4c, 0x10, 0x00, 0x00, 0xb8, 0x0f, 0x00, 0x00, 0x18, 0x0f, 0x00, 0x00,
  0x78, 0x0e, 0x00, 0x00, 0xd4, 0x0d, 0x00, 0x00, 0x3c, 0x0d, 0x00, 0x00,
  0xa4, 0x0c, 0x00, 0x00, 0xec, 0x0b, 0x00, 0x00, 0x70, 0x0b, 0x00, 0x00,
  0xec, 0x0a, 0x00, 0x00, 0x3c, 0x0a, 0x00, 0x00, 0xc0, 0x09, 0x00, 0x00,
  0x40, 0x09, 0x00, 0x00, 0xa8, 0x08, 0x00, 0x00, 0x20, 0x08, 0x00, 0x00,
  0x88, 0x07, 0x00, 0x00, 0xec, 0x06, 0x00, 0x00, 0x68, 0x06, 0x00, 0x00,
  0xc0, 0x05, 0x00, 0x00, 0x44, 0x05, 0x00, 0x00, 0xc0, 0x04, 0x00, 0x00,
  0x10, 0x04, 0x00, 0x00, 0x94, 0x03, 0x00, 0x00, 0x14, 0x03, 0x00, 0x00,
  0x7c, 0x02, 0x00, 0x00, 0xf4, 0x01, 0x00, 0x00, 0x5c, 0x01, 0x00, 0x00,
  0xd8, 0x00, 0x00, 0x00, 0x01, 0x00, 0x00, 0x00, 0x00, 0x00, 0x00, 0x00,
  0x01, 0x00, 0x00, 0x00, 0x2c, 0x00, 0x00, 0x00, 0x21, 0x00, 0x00, 0x00,
  0x90, 0x12, 0x00, 0x00, 0xc4, 0x11, 0x00, 0x00, 0x28, 0x11, 0x00, 0x00,
  0x7c, 0x10, 0x00, 0x00, 0x04, 0x10, 0x00, 0x00, 0x70, 0x0f, 0x00, 0x00,
  0xe0, 0x0e, 0x00, 0x00, 0x4c, 0x0e, 0x00, 0x00, 0x9c, 0x0d, 0x00, 0x00,
  0x18, 0x0d, 0x00, 0x00, 0x5c, 0x0c, 0x00, 0x00, 0xe0, 0x0b, 0x00, 0x00,
  0x24, 0x0b, 0x00, 0x00, 0xa8, 0x0a, 0x00, 0x00, 0x24, 0x0a, 0x00, 0x00,
  0x74, 0x09, 0x00, 0x00, 0xf8, 0x08, 0x00, 0x00, 0x74, 0x08, 0x00, 0x00,
  0xec, 0x07, 0x00, 0x00, 0x54, 0x07, 0x00, 0x00, 0xcc, 0x06, 0x00, 0x00,
  0x20, 0x06, 0x00, 0x00, 0xa4, 0x05, 0x00, 0x00, 0xf8, 0x04, 0x00, 0x00,
  0x7c, 0x04, 0x00, 0x00, 0xf8, 0x03, 0x00, 0x00, 0x48, 0x03, 0x00, 0x00,
  0xcc, 0x02, 0x00, 0x00, 0x48, 0x02, 0x00, 0x00, 0xc0, 0x01, 0x00, 0x00,
  0x28, 0x01, 0x00, 0x00, 0xa0, 0x00, 0x00, 0x00, 0x10, 0x00, 0x00, 0x00,
  0x04, 0x00, 0x00, 0x00, 0x6d, 0x61, 0x69, 0x6e, 0x00, 0x00, 0x00, 0x00,
  0xd6, 0xee, 0xff, 0xff, 0x00, 0x00, 0x00, 0x0b, 0x07, 0x00, 0x00, 0x00,
  0x18, 0x00, 0x00, 0x00, 0x0c, 0x00, 0x00, 0x00, 0x04, 0x00, 0x00, 0x00,
  0x88, 0xb2, 0xff, 0xff, 0x01, 0x00, 0x00, 0x00, 0x2c, 0x00, 0x00, 0x00,
  0x02, 0x00, 0x00, 0x00, 0x2b, 0x00, 0x00, 0x00, 0x01, 0x00, 0x00, 0x00,
  0x14, 0xb3, 0xff, 0xff, 0x14, 0x00, 0x00, 0x00, 0x2d, 0x00, 0x00, 0x00,
  0x1c, 0x00, 0x00, 0x00, 0x48, 0x00, 0x00, 0x00, 0x34, 0x00, 0x00, 0x00,
  0x03, 0x00, 0x00, 0x00, 0x01, 0x00, 0x00, 0x00, 0x01, 0x00, 0x00, 0x00,
  0x01, 0x00, 0x00, 0x00, 0x19, 0x00, 0x00, 0x00, 0x53, 0x74, 0x61, 0x74,
  0x65, 0x66, 0x75, 0x6c, 0x50, 0x61, 0x72, 0x74, 0x69, 0x74, 0x69, 0x6f,
  0x6e, 0x65, 0x64, 0x43, 0x61, 0x6c, 0x6c, 0x3a, 0x30, 0x00, 0x00, 0x00,
  0x03, 0x00, 0x00, 0x00, 0xff, 0xff, 0xff, 0xff, 0xff, 0xff, 0xff, 0xff,
  0x01, 0x00, 0x00, 0x00, 0xf8, 0xb2, 0xff, 0xff, 0xbe, 0xf2, 0xff, 0xff,
  0x05, 0x00, 0x00, 0x00, 0x10, 0x00, 0x00, 0x00, 0x04, 0x00, 0x00, 0x00,
  0x01, 0x00, 0x00, 0x00, 0x2b, 0x00, 0x00, 0x00, 0x02, 0x00, 0x00, 0x00,
  0x2a, 0x00, 0x00, 0x00, 0x25, 0x00, 0x00, 0x00, 0x94, 0xb3, 0xff, 0xff,
  0x14, 0x00, 0x00, 0x00, 0x2c, 0x00, 0x00, 0x00, 0x1c, 0x00, 0x00, 0x00,
  0x4c, 0x00, 0x00, 0x00, 0x38, 0x00, 0x00, 0x00, 0x03, 0x00, 0x00, 0x00,
  0x01, 0x00, 0x00, 0x00, 0x01, 0x00, 0x00, 0x00, 0x01, 0x00, 0x00, 0x00,
  0x1c, 0x00, 0x00, 0x00, 0x73, 0x65, 0x71, 0x75, 0x65, 0x6e, 0x74, 0x69,
  0x61, 0x6c, 0x2f, 0x64, 0x65, 0x6e, 0x73, 0x65, 0x5f, 0x32, 0x2f, 0x54,
  0x65, 0x6e, 0x73, 0x6f, 0x72, 0x64, 0x6f, 0x74, 0x00, 0x00, 0x00, 0x00,
  0x03, 0x00, 0x00, 0x00, 0xff, 0xff, 0xff, 0xff, 0xff, 0xff, 0xff, 0xff,
  0xff, 0xff, 0xff, 0xff, 0x7c, 0xb3, 0xff, 0xff, 0xe6, 0xef, 0xff, 0xff,
  0x00, 0x00, 0x00, 0x08, 0x06, 0x00, 0x00, 0x00, 0x18, 0x00, 0x00, 0x00,
  0x0c, 0x00, 0x00, 0x00, 0x04, 0x00, 0x00, 0x00, 0x98, 0xb3, 0xff, 0xff,
  0x01, 0x00, 0x00, 0x00, 0x2a, 0x00, 0x00, 0x00, 0x03, 0x00, 0x00, 0x00,
  0x29, 0x00, 0x00, 0x00, 0x0b, 0x00, 0x00, 0x00, 0xff, 0xff, 0xff, 0xff,
  0x28, 0xb4, 0xff, 0xff, 0x14, 0x00, 0x00, 0x00, 0x2b, 0x00, 0x00, 0x00,
  0x18, 0x00, 0x00, 0x00, 0x4c, 0x00, 0x00, 0x00, 0x3c, 0x00, 0x00, 0x00,
  0x02, 0x00, 0x00, 0x00, 0x01, 0x00, 0x00, 0x00, 0x01, 0x00, 0x00, 0x00,
  0x24, 0x00, 0x00, 0x00, 0x73, 0x65, 0x71, 0x75, 0x65, 0x6e, 0x74, 0x69,
  0x61, 0x6c, 0x2f, 0x64, 0x65, 0x6e, 0x73, 0x65, 0x5f, 0x32, 0x2f, 0x54,
  0x65, 0x6e, 0x73, 0x6f, 0x72, 0x64, 0x6f, 0x74, 0x2f, 0x4d, 0x61, 0x74,
  0x4d, 0x75, 0x6c, 0x32, 0x00, 0x00, 0x00, 0x00, 0x02, 0x00, 0x00, 0x00,
  0xff, 0xff, 0xff, 0xff, 0x01, 0x00, 0x00, 0x00, 0x10, 0xb4, 0xff, 0xff,
  0xd6, 0xf3, 0xff, 0xff, 0x05, 0x00, 0x00, 0x00, 0x10, 0x00, 0x00, 0x00,
  0x04, 0x00, 0x00, 0x00, 0x01, 0x00, 0x00, 0x00, 0x29, 0x00, 0x00, 0x00,
  0x02, 0x00, 0x00, 0x00, 0x21, 0x00, 0x00, 0x00, 0x28, 0x00, 0x00, 0x00,
  0xac, 0xb4, 0xff, 0xff, 0x14, 0x00, 0x00, 0x00, 0x2a, 0x00, 0x00, 0x00,
  0x18, 0x00, 0x00, 0x00, 0x4c, 0x00, 0x00, 0x00, 0x3c, 0x00, 0x00, 0x00,
  0x02, 0x00, 0x00, 0x00, 0x01, 0x00, 0x00, 0x00, 0x01, 0x00, 0x00, 0x00,
  0x24, 0x00, 0x00, 0x00, 0x73, 0x65, 0x71, 0x75, 0x65, 0x6e, 0x74, 0x69,
  0x61, 0x6c, 0x2f, 0x64, 0x65, 0x6e, 0x73, 0x65, 0x5f, 0x32, 0x2f, 0x54,
  0x65, 0x6e, 0x73, 0x6f, 0x72, 0x64, 0x6f, 0x74, 0x2f, 0x52, 0x65, 0x73,
  0x68, 0x61, 0x70, 0x65, 0x00, 0x00, 0x00, 0x00, 0x02, 0x00, 0x00, 0x00,
  0xff, 0xff, 0xff, 0xff, 0xff, 0xff, 0xff, 0xff, 0x94, 0xb4, 0xff, 0xff,
  0xfe, 0xf0, 0xff, 0xff, 0x00, 0x00, 0x00, 0x3b, 0x03, 0x00, 0x00, 0x00,
  0x1c, 0x00, 0x00, 0x00, 0x10, 0x00, 0x00, 0x00, 0x04, 0x00, 0x00, 0x00,
  0x7e, 0xb5, 0xff, 0xff, 0x02, 0x00, 0x00, 0x00, 0x01, 0x00, 0x00, 0x00,
  0x28, 0x00, 0x00, 0x00, 0x02, 0x00, 0x00, 0x00, 0x24, 0x00, 0x00, 0x00,
  0x27, 0x00, 0x00, 0x00, 0xf2, 0xb6, 0xff, 0xff, 0x00, 0x00, 0x00, 0x02,
  0x10, 0x00, 0x00, 0x00, 0x29, 0x00, 0x00, 0x00, 0x10, 0x00, 0x00, 0x00,
  0x34, 0x00, 0x00, 0x00, 0x01, 0x00, 0x00, 0x00, 0x02, 0x00, 0x00, 0x00,
  0x22, 0x00, 0x00, 0x00, 0x73, 0x65, 0x71, 0x75, 0x65, 0x6e, 0x74, 0x69,
  0x61, 0x6c, 0x2f, 0x64, 0x65, 0x6e, 0x73, 0x65, 0x5f, 0x32, 0x2f, 0x54,
  0x65, 0x6e, 0x73, 0x6f, 0x72, 0x64, 0x6f, 0x74, 0x2f, 0x73, 0x74, 0x61,
  0x63, 0x6b, 0x00, 0x00, 0x14, 0xb5, 0xff, 0xff, 0x7e, 0xf1, 0xff, 0xff,
  0x00, 0x00, 0x00, 0x1b, 0x02, 0x00, 0x00, 0x00, 0x18, 0x00, 0x00, 0x00,
  0x0c, 0x00, 0x00, 0x00, 0x04, 0x00, 0x00, 0x00, 0x30, 0xb5, 0xff, 0xff,
  0x01, 0x00, 0x00, 0x00, 0x27, 0x00, 0x00, 0x00, 0x02, 0x00, 0x00, 0x00,
  0x26, 0x00, 0x00, 0x00, 0x07, 0x00, 0x00, 0x00, 0x6e, 0xb7, 0xff, 0xff,
  0x00, 0x00, 0x00, 0x02, 0x10, 0x00, 0x00, 0x00, 0x28, 0x00, 0x00, 0x00,
  0x0c, 0x00, 0x00, 0x00, 0x30, 0x00, 0x00, 0x00, 0x00, 0x00, 0x00, 0x00,
  0x23, 0x00, 0x00, 0x00, 0x73, 0x65, 0x71, 0x75, 0x65, 0x6e, 0x74, 0x69,
  0x61, 0x6c, 0x2f, 0x64, 0x65, 0x6e, 0x73, 0x65, 0x5f, 0x32, 0x2f, 0x54,
  0x65, 0x6e, 0x73, 0x6f, 0x72, 0x64, 0x6f, 0x74, 0x2f, 0x50, 0x72, 0x6f,
  0x64, 0x5f, 0x31, 0x00, 0x8c, 0xb5, 0xff, 0xff, 0xf6, 0xf1, 0xff, 0xff,
  0x00, 0x00, 0x00, 0x17, 0x01, 0x00, 0x00, 0x00, 0x18, 0x00, 0x00, 0x00,
  0x0c, 0x00, 0x00, 0x00, 0x04, 0x00, 0x00, 0x00, 0xa8, 0xb5, 0xff, 0xff,
  0x01, 0x00, 0x00, 0x00, 0x26, 0x00, 0x00, 0x00, 0x02, 0x00, 0x00, 0x00,
  0x22, 0x00, 0x00, 0x00, 0x05, 0x00, 0x00, 0x00, 0xe6, 0xb7, 0xff, 0xff,
  0x00, 0x00, 0x00, 0x02, 0x10, 0x00, 0x00, 0x00, 0x27, 0x00, 0x00, 0x00,
  0x10, 0x00, 0x00, 0x00, 0x64, 0x00, 0x00, 0x00, 0x01, 0x00, 0x00, 0x00,
  0x01, 0x00, 0x00, 0x00, 0x50, 0x00, 0x00, 0x00, 0x73, 0x65, 0x71, 0x75,
  0x65, 0x6e, 0x74, 0x69, 0x61, 0x6c, 0x2f, 0x64, 0x65, 0x6e, 0x73, 0x65,
  0x5f, 0x32, 0x2f, 0x54, 0x65, 0x6e, 0x73, 0x6f, 0x72, 0x64, 0x6f, 0x74,
  0x2f, 0x47, 0x61, 0x74, 0x68, 0x65, 0x72, 0x56, 0x32, 0x5f, 0x31, 0x3b,
  0x73, 0x65, 0x71, 0x75, 0x65, 0x6e, 0x74, 0x69, 0x61, 0x6c, 0x2f, 0x64,
  0x65, 0x6e, 0x73, 0x65, 0x2f, 0x54, 0x65, 0x6e, 0x73, 0x6f, 0x72, 0x64,
  0x6f, 0x74, 0x2f, 0x47, 0x61, 0x74, 0x68, 0x65, 0x72, 0x56, 0x32, 0x2f,
  0x61, 0x78, 0x69, 0x73, 0x00, 0x00, 0x00, 0x00, 0x38, 0xb6, 0xff, 0xff,
  0xa2, 0xf2, 0xff, 0xff, 0x00, 0x00, 0x00, 0x0a, 0x04, 0x00, 0x00, 0x00,
  0x18, 0x00, 0x00, 0x00, 0x0c, 0x00, 0x00, 0x00, 0x04, 0x00, 0x00, 0x00,
  0x54, 0xb6, 0xff, 0xff, 0x01, 0x00, 0x00, 0x00, 0x25, 0x00, 0x00, 0x00,
  0x02, 0x00, 0x00, 0x00, 0x23, 0x00, 0x00, 0x00, 0x06, 0x00, 0x00, 0x00,
  0x92, 0xb8, 0xff, 0xff, 0x00, 0x00, 0x00, 0x02, 0x10, 0x00, 0x00, 0x00,
  0x26, 0x00, 0x00, 0x00, 0x10, 0x00, 0x00, 0x00, 0x38, 0x00, 0x00, 0x00,
  0x01, 0x00, 0x00, 0x00, 0x03, 0x00, 0x00, 0x00, 0x25, 0x00, 0x00, 0x00,
  0x73, 0x65, 0x71, 0x75, 0x65, 0x6e, 0x74, 0x69, 0x61, 0x6c, 0x2f, 0x64,
  0x65, 0x6e, 0x73, 0x65, 0x5f, 0x32, 0x2f, 0x54, 0x65, 0x6e, 0x73, 0x6f,
  0x72, 0x64, 0x6f, 0x74, 0x2f, 0x63, 0x6f, 0x6e, 0x63, 0x61, 0x74, 0x5f,
  0x31, 0x00, 0x00, 0x00, 0xb8, 0xb6, 0xff, 0xff, 0x22, 0xf3, 0xff, 0xff,
  0x00, 0x00, 0x00, 0x1b, 0x02, 0x00, 0x00, 0x00, 0x18, 0x00, 0x00, 0x00,
  0x0c, 0x00, 0x00, 0x00, 0x04, 0x00, 0x00, 0x00, 0xd4, 0xb6, 0xff, 0xff,
  0x01, 0x00, 0x00, 0x00, 0x24, 0x00, 0x00, 0x00, 0x02, 0x00, 0x00, 0x00,
  0x23, 0x00, 0x00, 0x00, 0x07, 0x00, 0x00, 0x00, 0x12, 0xb9, 0xff, 0xff,
  0x00, 0x00, 0x00, 0x02, 0x10, 0x00, 0x00, 0x00, 0x25, 0x00, 0x00, 0x00,
  0x0c, 0x00, 0x00, 0x00, 0x30, 0x00, 0x00, 0x00, 0x00, 0x00, 0x00, 0x00,
  0x21, 0x00, 0x00, 0x00, 0x73, 0x65, 0x71, 0x75, 0x65, 0x6e, 0x74, 0x69,
  0x61, 0x6c, 0x2f, 0x64, 0x65, 0x6e, 0x73, 0x65, 0x5f, 0x32, 0x2f, 0x54,
  0x65, 0x6e, 0x73, 0x6f, 0x72, 0x64, 0x6f, 0x74, 0x2f, 0x50, 0x72, 0x6f,
  0x64, 0x00, 0x00, 0x00, 0x30, 0xb7, 0xff, 0xff, 0x9a, 0xf3, 0xff, 0xff,
  0x00, 0x00, 0x00, 0x17, 0x01, 0x00, 0x00, 0x00, 0x18, 0x00, 0x00, 0x00,
  0x0c, 0x00, 0x00, 0x00, 0x04, 0x00, 0x00, 0x00, 0x4c, 0xb7, 0xff, 0xff,
  0x01, 0x00, 0x00, 0x00, 0x23, 0x00, 0x00, 0x00, 0x02, 0x00, 0x00, 0x00,
  0x22, 0x00, 0x00, 0x00, 0x04, 0x00, 0x00, 0x00, 0x8a, 0xb9, 0xff, 0xff,
  0x00, 0x00, 0x00, 0x02, 0x10, 0x00, 0x00, 0x00, 0x24, 0x00, 0x00, 0x00,
  0x10, 0x00, 0x00, 0x00, 0x60, 0x00, 0x00, 0x00, 0x01, 0x00, 0x00, 0x00,
  0x02, 0x00, 0x00, 0x00, 0x4e, 0x00, 0x00, 0x00, 0x73, 0x65, 0x71, 0x75,
  0x65, 0x6e, 0x74, 0x69, 0x61, 0x6c, 0x2f, 0x64, 0x65, 0x6e, 0x73, 0x65,
  0x5f, 0x32, 0x2f, 0x54, 0x65, 0x6e, 0x73, 0x6f, 0x72, 0x64, 0x6f, 0x74,
  0x2f, 0x47, 0x61, 0x74, 0x68, 0x65, 0x72, 0x56, 0x32, 0x3b, 0x73, 0x65,
  0x71, 0x75, 0x65, 0x6e, 0x74, 0x69, 0x61, 0x6c, 0x2f, 0x64, 0x65, 0x6e,
  0x73, 0x65, 0x2f, 0x54, 0x65, 0x6e, 0x73, 0x6f, 0x72, 0x64, 0x6f, 0x74,
  0x2f, 0x47, 0x61, 0x74, 0x68, 0x65, 0x72, 0x56, 0x32, 0x2f, 0x61, 0x78,
  0x69, 0x73, 0x00, 0x00, 0xd8, 0xb7, 0xff, 0xff, 0xfe, 0xf9, 0xff, 0xff,
  0x00, 0x00, 0x00, 0x37, 0x1c, 0x00, 0x00, 0x00, 0x10, 0x00, 0x00, 0x00,
  0x04, 0x00, 0x00, 0x00, 0x6a, 0xf3, 0xff, 0xff, 0x00, 0x00, 0x00, 0x02,
  0x01, 0x00, 0x00, 0x00, 0x22, 0x00, 0x00, 0x00, 0x01, 0x00, 0x00, 0x00,
  0x21, 0x00, 0x00, 0x00, 0x2e, 0xba, 0xff, 0xff, 0x00, 0x00, 0x00, 0x02,
  0x10, 0x00, 0x00, 0x00, 0x23, 0x00, 0x00, 0x00, 0x10, 0x00, 0x00, 0x00,
  0x34, 0x00, 0x00, 0x00, 0x01, 0x00, 0x00, 0x00, 0x03, 0x00, 0x00, 0x00,
  0x22, 0x00, 0x00, 0x00, 0x73, 0x65, 0x71, 0x75, 0x65, 0x6e, 0x74, 0x69,
  0x61, 0x6c, 0x2f, 0x64, 0x65, 0x6e, 0x73, 0x65, 0x5f, 0x32, 0x2f, 0x54,
  0x65, 0x6e, 0x73, 0x6f, 0x72, 0x64, 0x6f, 0x74, 0x2f, 0x53, 0x68, 0x61,
  0x70, 0x65, 0x00, 0x00, 0x50, 0xb8, 0xff, 0xff, 0xba, 0xf4, 0xff, 0xff,
  0x00, 0x00, 0x00, 0x0b, 0x07, 0x00, 0x00, 0x00, 0x1c, 0x00, 0x00, 0x00,
  0x10, 0x00, 0x00, 0x00, 0x04, 0x00, 0x00, 0x00, 0xe6, 0xf3, 0xff, 0xff,
  0x00, 0x00, 0x00, 0x01, 0x01, 0x00, 0x00, 0x00, 0x21, 0x00, 0x00, 0x00,
  0x02, 0x00, 0x00, 0x00, 0x20, 0x00, 0x00, 0x00, 0x02, 0x00, 0x00, 0x00,
  0xfc, 0xb8, 0xff, 0xff, 0x14, 0x00, 0x00, 0x00, 0x22, 0x00, 0x00, 0x00,
  0x1c, 0x00, 0x00, 0x00, 0x60, 0x00, 0x00, 0x00, 0x4c, 0x00, 0x00, 0x00,
  0x03, 0x00, 0x00, 0x00, 0x01, 0x00, 0x00, 0x00, 0x01, 0x00, 0x00, 0x00,
  0x10, 0x00, 0x00, 0x00, 0x32, 0x00, 0x00, 0x00, 0x73, 0x65, 0x71, 0x75,
  0x65, 0x6e, 0x74, 0x69, 0x61, 0x6c, 0x2f, 0x64, 0x65, 0x6e, 0x73, 0x65,
  0x5f, 0x31, 0x2f, 0x52, 0x65, 0x6c, 0x75, 0x3b, 0x73, 0x65, 0x71, 0x75,
  0x65, 0x6e, 0x74, 0x69, 0x61, 0x6c, 0x2f, 0x64, 0x65, 0x6e, 0x73, 0x65,
  0x5f, 0x31, 0x2f, 0x42, 0x69, 0x61, 0x73, 0x41, 0x64, 0x64, 0x00, 0x00,
  0x03, 0x00, 0x00, 0x00, 0xff, 0xff, 0xff, 0xff, 0xff, 0xff, 0xff, 0xff,
  0x10, 0x00, 0x00, 0x00, 0xf8, 0xb8, 0xff, 0xff, 0xbe, 0xf8, 0xff, 0xff,
  0x05, 0x00, 0x00, 0x00, 0x10, 0x00, 0x00, 0x00, 0x04, 0x00, 0x00, 0x00,
  0x01, 0x00, 0x00, 0x00, 0x20, 0x00, 0x00, 0x00, 0x02, 0x00, 0x00, 0x00,
  0x1f, 0x00, 0x00, 0x00, 0x1a, 0x00, 0x00, 0x00, 0x94, 0xb9, 0xff, 0xff,
  0x14, 0x00, 0x00, 0x00, 0x21, 0x00, 0x00, 0x00, 0x1c, 0x00, 0x00, 0x00,
  0x4c, 0x00, 0x00, 0x00, 0x38, 0x00, 0x00, 0x00, 0x03, 0x00, 0x00, 0x00,
  0x01, 0x00, 0x00, 0x00, 0x01, 0x00, 0x00, 0x00, 0x01, 0x00, 0x00, 0x00,
  0x1c, 0x00, 0x00, 0x00, 0x73, 0x65, 0x71, 0x75, 0x65, 0x6e, 0x74, 0x69,
  0x61, 0x6c, 0x2f, 0x64, 0x65, 0x6e, 0x73, 0x65, 0x5f, 0x31, 0x2f, 0x54,
  0x65, 0x6e, 0x73, 0x6f, 0x72, 0x64, 0x6f, 0x74, 0x00, 0x00, 0x00, 0x00,
  0x03, 0x00, 0x00, 0x00, 0xff, 0xff, 0xff, 0xff, 0xff, 0xff, 0xff, 0xff,
  0xff, 0xff, 0xff, 0xff, 0x7c, 0xb9, 0xff, 0xff, 0xe6, 0xf5, 0xff, 0xff,
  0x00, 0x00, 0x00, 0x08, 0x06, 0x00, 0x00, 0x00, 0x18, 0x00, 0x00, 0x00,
  0x0c, 0x00, 0x00, 0x00, 0x04, 0x00, 0x00, 0x00, 0x98, 0xb9, 0xff, 0xff,
  0x01, 0x00, 0x00, 0x00, 0x1f, 0x00, 0x00, 0x00, 0x03, 0x00, 0x00, 0x00,
  0x1e, 0x00, 0x00, 0x00, 0x0a, 0x00, 0x00, 0x00, 0xff, 0xff, 0xff, 0xff,
  0x28, 0xba, 0xff, 0xff, 0x14, 0x00, 0x00, 0x00, 0x20, 0x00, 0x00, 0x00,
  0x18, 0x00, 0x00, 0x00, 0x4c, 0x00, 0x00, 0x00, 0x3c, 0x00, 0x00, 0x00,
  0x02, 0x00, 0x00, 0x00, 0x01, 0x00, 0x00, 0x00, 0x10, 0x00, 0x00, 0x00,
  0x24, 0x00, 0x00, 0x00, 0x73, 0x65, 0x71, 0x75, 0x65, 0x6e, 0x74, 0x69,
  0x61, 0x6c, 0x2f, 0x64, 0x65, 0x6e, 0x73, 0x65, 0x5f, 0x31, 0x2f, 0x54,
  0x65, 0x6e, 0x73, 0x6f, 0x72, 0x64, 0x6f, 0x74, 0x2f, 0x4d, 0x61, 0x74,
  0x4d, 0x75, 0x6c, 0x31, 0x00, 0x00, 0x00, 0x00, 0x02, 0x00, 0x00, 0x00,
  0xff, 0xff, 0xff, 0xff, 0x10, 0x00, 0x00, 0x00, 0x10, 0xba, 0xff, 0xff,
  0xd6, 0xf9, 0xff, 0xff, 0x05, 0x00, 0x00, 0x00, 0x10, 0x00, 0x00, 0x00,
  0x04, 0x00, 0x00, 0x00, 0x01, 0x00, 0x00, 0x00, 0x1e, 0x00, 0x00, 0x00,
  0x02, 0x00, 0x00, 0x00, 0x16, 0x00, 0x00, 0x00, 0x1d, 0x00, 0x00, 0x00,
  0xac, 0xba, 0xff, 0xff, 0x14, 0x00, 0x00, 0x00, 0x1f, 0x00, 0x00, 0x00,
  0x18, 0x00, 0x00, 0x00, 0x4c, 0x00, 0x00, 0x00, 0x3c, 0x00, 0x00, 0x00,
  0x02, 0x00, 0x00, 0x00, 0x01, 0x00, 0x00, 0x00, 0x01, 0x00, 0x00, 0x00,
  0x24, 0x00, 0x00, 0x00, 0x73, 0x65, 0x71, 0x75, 0x65, 0x6e, 0x74, 0x69,
  0x61, 0x6c, 0x2f, 0x64, 0x65, 0x6e, 0x73, 0x65, 0x5f, 0x31, 0x2f, 0x54,
  0x65, 0x6e, 0x73, 0x6f, 0x72, 0x64, 0x6f, 0x74, 0x2f, 0x52, 0x65, 0x73,
  0x68, 0x61, 0x70, 0x65, 0x00, 0x00, 0x00, 0x00, 0x02, 0x00, 0x00, 0x00,
  0xff, 0xff, 0xff, 0xff, 0xff, 0xff, 0xff, 0xff, 0x94, 0xba, 0xff, 0xff,
  0xfe, 0xf6, 0xff, 0xff, 0x00, 0x00, 0x00, 0x3b, 0x03, 0x00, 0x00, 0x00,
  0x1c, 0x00, 0x00, 0x00, 0x10, 0x00, 0x00, 0x00, 0x04, 0x00, 0x00, 0x00,
  0x7e, 0xbb, 0xff, 0xff, 0x02, 0x00, 0x00, 0x00, 0x01, 0x00, 0x00, 0x00,
  0x1d, 0x00, 0x00, 0x00, 0x02, 0x00, 0x00, 0x00, 0x19, 0x00, 0x00, 0x00,
  0x1c, 0x00, 0x00, 0x00, 0xf2, 0xbc, 0xff, 0xff, 0x00, 0x00, 0x00, 0x02,
  0x10, 0x00, 0x00, 0x00, 0x1e, 0x00, 0x00, 0x00, 0x10, 0x00, 0x00, 0x00,
  0x34, 0x00, 0x00, 0x00, 0x01, 0x00, 0x00, 0x00, 0x02, 0x00, 0x00, 0x00,
  0x22, 0x00, 0x00, 0x00, 0x73, 0x65, 0x71, 0x75, 0x65, 0x6e, 0x74, 0x69,
  0x61, 0x6c, 0x2f, 0x64, 0x65, 0x6e, 0x73, 0x65, 0x5f, 0x31, 0x2f, 0x54,
  0x65, 0x6e, 0x73, 0x6f, 0x72, 0x64, 0x6f, 0x74, 0x2f, 0x73, 0x74, 0x61,
  0x63, 0x6b, 0x00, 0x00, 0x14, 0xbb, 0xff, 0xff, 0x7e, 0xf7, 0xff, 0xff,
  0x00, 0x00, 0x00, 0x1b, 0x02, 0x00, 0x00, 0x00, 0x18, 0x00, 0x00, 0x00,
  0x0c, 0x00, 0x00, 0x00, 0x04, 0x00, 0x00, 0x00, 0x30, 0xbb, 0xff, 0xff,
  0x01, 0x00, 0x00, 0x00, 0x1c, 0x00, 0x00, 0x00, 0x02, 0x00, 0x00, 0x00,
  0x1b, 0x00, 0x00, 0x00, 0x07, 0x00, 0x00, 0x00, 0x6e, 0xbd, 0xff, 0xff,
  0x00, 0x00, 0x00, 0x02, 0x10, 0x00, 0x00, 0x00, 0x1d, 0x00, 0x00, 0x00,
  0x0c, 0x00, 0x00, 0x00, 0x30, 0x00, 0x00, 0x00, 0x00, 0x00, 0x00, 0x00,
  0x23, 0x00, 0x00, 0x00, 0x73, 0x65, 0x71, 0x75, 0x65, 0x6e, 0x74, 0x69,
  0x61, 0x6c, 0x2f, 0x64, 0x65, 0x6e, 0x73, 0x65, 0x5f, 0x31, 0x2f, 0x54,
  0x65, 0x6e, 0x73, 0x6f, 0x72, 0x64, 0x6f, 0x74, 0x2f, 0x50, 0x72, 0x6f,
  0x64, 0x5f, 0x31, 0x00, 0x8c, 0xbb, 0xff, 0xff, 0xf6, 0xf7, 0xff, 0xff,
  0x00, 0x00, 0x00, 0x17, 0x01, 0x00, 0x00, 0x00, 0x18, 0x00, 0x00, 0x00,
  0x0c, 0x00, 0x00, 0x00, 0x04, 0x00, 0x00, 0x00, 0xa8, 0xbb, 0xff, 0xff,
  0x01, 0x00, 0x00, 0x00, 0x1b, 0x00, 0x00, 0x00, 0x02, 0x00, 0x00, 0x00,
  0x17, 0x00, 0x00, 0x00, 0x05, 0x00, 0x00, 0x00, 0xe6, 0xbd, 0xff, 0xff,
  0x00, 0x00, 0x00, 0x02, 0x10, 0x00, 0x00, 0x00, 0x1c, 0x00, 0x00, 0x00,
  0x10, 0x00, 0x00, 0x00, 0x64, 0x00, 0x00, 0x00, 0x01, 0x00, 0x00, 0x00,
  0x01, 0x00, 0x00, 0x00, 0x50, 0x00, 0x00, 0x00, 0x73, 0x65, 0x71, 0x75,
  0x65, 0x6e, 0x74, 0x69, 0x61, 0x6c, 0x2f, 0x64, 0x65, 0x6e, 0x73, 0x65,
  0x5f, 0x31, 0x2f, 0x54, 0x65, 0x6e, 0x73, 0x6f, 0x72, 0x64, 0x6f, 0x74,
  0x2f, 0x47, 0x61, 0x74, 0x68, 0x65, 0x72, 0x56, 0x32, 0x5f, 0x31, 0x3b,
  0x73, 0x65, 0x71, 0x75, 0x65, 0x6e, 0x74, 0x69, 0x61, 0x6c, 0x2f, 0x64,
  0x65, 0x6e, 0x73, 0x65, 0x2f, 0x54, 0x65, 0x6e, 0x73, 0x6f, 0x72, 0x64,
  0x6f, 0x74, 0x2f, 0x47, 0x61, 0x74, 0x68, 0x65, 0x72, 0x56, 0x32, 0x2f,
  0x61, 0x78, 0x69, 0x73, 0x00, 0x00, 0x00, 0x00, 0x38, 0xbc, 0xff, 0xff,
  0xa2, 0xf8, 0xff, 0xff, 0x00, 0x00, 0x00, 0x0a, 0x04, 0x00, 0x00, 0x00,
  0x18, 0x00, 0x00, 0x00, 0x0c, 0x00, 0x00, 0x00, 0x04, 0x00, 0x00, 0x00,
  0x54, 0xbc, 0xff, 0xff, 0x01, 0x00, 0x00, 0x00, 0x1a, 0x00, 0x00, 0x00,
  0x02, 0x00, 0x00, 0x00, 0x18, 0x00, 0x00, 0x00, 0x08, 0x00, 0x00, 0x00,
  0x92, 0xbe, 0xff, 0xff, 0x00, 0x00, 0x00, 0x02, 0x10, 0x00, 0x00, 0x00,
  0x1b, 0x00, 0x00, 0x00, 0x10, 0x00, 0x00, 0x00, 0x38, 0x00, 0x00, 0x00,
  0x01, 0x00, 0x00, 0x00, 0x03, 0x00, 0x00, 0x00, 0x25, 0x00, 0x00, 0x00,
  0x73, 0x65, 0x71, 0x75, 0x65, 0x6e, 0x74, 0x69, 0x61, 0x6c, 0x2f, 0x64,
  0x65, 0x6e, 0x73, 0x65, 0x5f, 0x31, 0x2f, 0x54, 0x65, 0x6e, 0x73, 0x6f,
  0x72, 0x64, 0x6f, 0x74, 0x2f, 0x63, 0x6f, 0x6e, 0x63, 0x61, 0x74, 0x5f,
  0x31, 0x00, 0x00, 0x00, 0xb8, 0xbc, 0xff, 0xff, 0x22, 0xf9, 0xff, 0xff,
  0x00, 0x00, 0x00, 0x1b, 0x02, 0x00, 0x00, 0x00, 0x18, 0x00, 0x00, 0x00,
  0x0c, 0x00, 0x00, 0x00, 0x04, 0x00, 0x00, 0x00, 0xd4, 0xbc, 0xff, 0xff,
  0x01, 0x00, 0x00, 0x00, 0x19, 0x00, 0x00, 0x00, 0x02, 0x00, 0x00, 0x00,
  0x18, 0x00, 0x00, 0x00, 0x07, 0x00, 0x00, 0x00, 0x12, 0xbf, 0xff, 0xff,
  0x00, 0x00, 0x00, 0x02, 0x10, 0x00, 0x00, 0x00, 0x1a, 0x00, 0x00, 0x00,
  0x0c, 0x00, 0x00, 0x00, 0x30, 0x00, 0x00, 0x00, 0x00, 0x00, 0x00, 0x00,
  0x21, 0x00, 0x00, 0x00, 0x73, 0x65, 0x71, 0x75, 0x65, 0x6e, 0x74, 0x69,
  0x61, 0x6c, 0x2f, 0x64, 0x65, 0x6e, 0x73, 0x65, 0x5f, 0x31, 0x2f, 0x54,
  0x65, 0x6e, 0x73, 0x6f, 0x72, 0x64, 0x6f, 0x74, 0x2f, 0x50, 0x72, 0x6f,
  0x64, 0x00, 0x00, 0x00, 0x30, 0xbd, 0xff, 0xff, 0x9a, 0xf9, 0xff, 0xff,
  0x00, 0x00, 0x00, 0x17, 0x01, 0x00, 0x00, 0x00, 0x18, 0x00, 0x00, 0x00,
  0x0c, 0x00, 0x00, 0x00, 0x04, 0x00, 0x00, 0x00, 0x4c, 0xbd, 0xff, 0xff,
  0x01, 0x00, 0x00, 0x00, 0x18, 0x00, 0x00, 0x00, 0x02, 0x00, 0x00, 0x00,
  0x17, 0x00, 0x00, 0x00, 0x04, 0x00, 0x00, 0x00, 0x8a, 0xbf, 0xff, 0xff,
  0x00, 0x00, 0x00, 0x02, 0x10, 0x00, 0x00, 0x00, 0x19, 0x00, 0x00, 0x00,
  0x10, 0x00, 0x00, 0x00, 0x60, 0x00, 0x00, 0x00, 0x01, 0x00, 0x00, 0x00,
  0x02, 0x00, 0x00, 0x00, 0x4e, 0x00, 0x00, 0x00, 0x73, 0x65, 0x71, 0x75,
  0x65, 0x6e, 0x74, 0x69, 0x61, 0x6c, 0x2f, 0x64, 0x65, 0x6e, 0x73, 0x65,
  0x5f, 0x31, 0x2f, 0x54, 0x65, 0x6e, 0x73, 0x6f, 0x72, 0x64, 0x6f, 0x74,
  0x2f, 0x47, 0x61, 0x74, 0x68, 0x65, 0x72, 0x56, 0x32, 0x3b, 0x73, 0x65,
  0x71, 0x75, 0x65, 0x6e, 0x74, 0x69, 0x61, 0x6c, 0x2f, 0x64, 0x65, 0x6e,
  0x73, 0x65, 0x2f, 0x54, 0x65, 0x6e, 0x73, 0x6f, 0x72, 0x64, 0x6f, 0x74,
  0x2f, 0x47, 0x61, 0x74, 0x68, 0x65, 0x72, 0x56, 0x32, 0x2f, 0x61, 0x78,
  0x69, 0x73, 0x00, 0x00, 0xb0, 0xbe, 0xff, 0xff, 0x00, 0x00, 0x0e, 0x00,
  0x14, 0x00, 0x00, 0x00, 0x08, 0x00, 0x0c, 0x00, 0x07, 0x00, 0x10, 0x00,
  0x0e, 0x00, 0x00, 0x00, 0x00, 0x00, 0x00, 0x37, 0x1c, 0x00, 0x00, 0x00,
  0x10, 0x00, 0x00, 0x00, 0x04, 0x00, 0x00, 0x00, 0x7a, 0xf9, 0xff, 0xff,
  0x00, 0x00, 0x00, 0x02, 0x01, 0x00, 0x00, 0x00, 0x17, 0x00, 0x00, 0x00,
  0x01, 0x00, 0x00, 0x00, 0x16, 0x00, 0x00, 0x00, 0x3e, 0xc0, 0xff, 0xff,
  0x00, 0x00, 0x00, 0x02, 0x10, 0x00, 0x00, 0x00, 0x18, 0x00, 0x00, 0x00,
  0x10, 0x00, 0x00, 0x00, 0x34, 0x00, 0x00, 0x00, 0x01, 0x00, 0x00, 0x00,
  0x03, 0x00, 0x00, 0x00, 0x22, 0x00, 0x00, 0x00, 0x73, 0x65, 0x71, 0x75,
  0x65, 0x6e, 0x74, 0x69, 0x61, 0x6c, 0x2f, 0x64, 0x65, 0x6e, 0x73, 0x65,
  0x5f, 0x31, 0x2f, 0x54, 0x65, 0x6e, 0x73, 0x6f, 0x72, 0x64, 0x6f, 0x74,
  0x2f, 0x53, 0x68, 0x61, 0x70, 0x65, 0x00, 0x00, 0x60, 0xbe, 0xff, 0xff,
  0xca, 0xfa, 0xff, 0xff, 0x00, 0x00, 0x00, 0x0b, 0x07, 0x00, 0x00, 0x00,
  0x1c, 0x00, 0x00, 0x00, 0x10, 0x00, 0x00, 0x00, 0x04, 0x00, 0x00, 0x00,
  0xf6, 0xf9, 0xff, 0xff, 0x00, 0x00, 0x00, 0x01, 0x01, 0x00, 0x00, 0x00,
  0x16, 0x00, 0x00, 0x00, 0x02, 0x00, 0x00, 0x00, 0x15, 0x00, 0x00, 0x00,
  0x03, 0x00, 0x00, 0x00, 0x00, 0x00, 0x0a, 0x00, 0x08, 0x00, 0x00, 0x00,
  0x00, 0x00, 0x04, 0x00, 0x0a, 0x00, 0x00, 0x00, 0x01, 0x00, 0x00, 0x00,
  0x20, 0xbf, 0xff, 0xff, 0x14, 0x00, 0x00, 0x00, 0x17, 0x00, 0x00, 0x00,
  0x1c, 0x00, 0x00, 0x00, 0x5c, 0x00, 0x00, 0x00, 0x48, 0x00, 0x00, 0x00,
  0x03, 0x00, 0x00, 0x00, 0x01, 0x00, 0x00, 0x00, 0x01, 0x00, 0x00, 0x00,
  0x10, 0x00, 0x00, 0x00, 0x2e, 0x00, 0x00, 0x00, 0x73, 0x65, 0x71, 0x75,
  0x65, 0x6e, 0x74, 0x69, 0x61, 0x6c, 0x2f, 0x64, 0x65, 0x6e, 0x73, 0x65,
  0x2f, 0x52, 0x65, 0x6c, 0x75, 0x3b, 0x73, 0x65, 0x71, 0x75, 0x65, 0x6e,
  0x74, 0x69, 0x61, 0x6c, 0x2f, 0x64, 0x65, 0x6e, 0x73, 0x65, 0x2f, 0x42,
  0x69, 0x61, 0x73, 0x41, 0x64, 0x64, 0x00, 0x00, 0x03, 0x00, 0x00, 0x00,
  0xff, 0xff, 0xff, 0xff, 0xff, 0xff, 0xff, 0xff, 0x10, 0x00, 0x00, 0x00,
  0x18, 0xbf, 0xff, 0xff, 0xde, 0xfe, 0xff, 0xff, 0x05, 0x00, 0x00, 0x00,
  0x10, 0x00, 0x00, 0x00, 0x04, 0x00, 0x00, 0x00, 0x01, 0x00, 0x00, 0x00,
  0x15, 0x00, 0x00, 0x00, 0x02, 0x00, 0x00, 0x00, 0x14, 0x00, 0x00, 0x00,
  0x12, 0x00, 0x00, 0x00, 0xb4, 0xbf, 0xff, 0xff, 0x14, 0x00, 0x00, 0x00,
  0x16, 0x00, 0x00, 0x00, 0x1c, 0x00, 0x00, 0x00, 0x48, 0x00, 0x00, 0x00,
  0x34, 0x00, 0x00, 0x00, 0x03, 0x00, 0x00, 0x00, 0x01, 0x00, 0x00, 0x00,
  0x01, 0x00, 0x00, 0x00, 0x01, 0x00, 0x00, 0x00, 0x1a, 0x00, 0x00, 0x00,
  0x73, 0x65, 0x71, 0x75, 0x65, 0x6e, 0x74, 0x69, 0x61, 0x6c, 0x2f, 0x64,
  0x65, 0x6e, 0x73, 0x65, 0x2f, 0x54, 0x65, 0x6e, 0x73, 0x6f, 0x72, 0x64,
  0x6f, 0x74, 0x00, 0x00, 0x03, 0x00, 0x00, 0x00, 0xff, 0xff, 0xff, 0xff,
  0xff, 0xff, 0xff, 0xff, 0xff, 0xff, 0xff, 0xff, 0x98, 0xbf, 0xff, 0xff,
  0x02, 0xfc, 0xff, 0xff, 0x00, 0x00, 0x00, 0x08, 0x06, 0x00, 0x00, 0x00,
  0x18, 0x00, 0x00, 0x00, 0x0c, 0x00, 0x00, 0x00, 0x04, 0x00, 0x00, 0x00,
  0xb4, 0xbf, 0xff, 0xff, 0x01, 0x00, 0x00, 0x00, 0x14, 0x00, 0x00, 0x00,
  0x03, 0x00, 0x00, 0x00, 0x13, 0x00, 0x00, 0x00, 0x09, 0x00, 0x00, 0x00,
  0xff, 0xff, 0xff, 0xff, 0x2c, 0xfb, 0xff, 0xff, 0x09, 0x00, 0x00, 0x00,
  0x00, 0x00, 0x00, 0x09, 0x01, 0x00, 0x00, 0x00, 0x54, 0xc0, 0xff, 0xff,
  0x14, 0x00, 0x00, 0x00, 0x15, 0x00, 0x00, 0x00, 0x18, 0x00, 0x00, 0x00,
  0x48, 0x00, 0x00, 0x00, 0x38, 0x00, 0x00, 0x00, 0x02, 0x00, 0x00, 0x00,
  0x01, 0x00, 0x00, 0x00, 0x10, 0x00, 0x00, 0x00, 0x22, 0x00, 0x00, 0x00,
  0x73, 0x65, 0x71, 0x75, 0x65, 0x6e, 0x74, 0x69, 0x61, 0x6c, 0x2f, 0x64,
  0x65, 0x6e, 0x73, 0x65, 0x2f, 0x54, 0x65, 0x6e, 0x73, 0x6f, 0x72, 0x64,
  0x6f, 0x74, 0x2f, 0x4d, 0x61, 0x74, 0x4d, 0x75, 0x6c, 0x31, 0x00, 0x00,
  0x02, 0x00, 0x00, 0x00, 0xff, 0xff, 0xff, 0xff, 0x10, 0x00, 0x00, 0x00,
  0x10, 0xc1, 0xff, 0xff, 0x00, 0x00, 0x0a, 0x00, 0x10, 0x00, 0x04, 0x00,
  0x08, 0x00, 0x0c, 0x00, 0x0a, 0x00, 0x00, 0x00, 0x05, 0x00, 0x00, 0x00,
  0x10, 0x00, 0x00, 0x00, 0x04, 0x00, 0x00, 0x00, 0x01, 0x00, 0x00, 0x00,
  0x13, 0x00, 0x00, 0x00, 0x02, 0x00, 0x00, 0x00, 0x00, 0x00, 0x00, 0x00,
  0x11, 0x00, 0x00, 0x00, 0xc8, 0xfb, 0xff, 0xff, 0x16, 0x00, 0x00, 0x00,
  0x00, 0x00, 0x00, 0x16, 0x01, 0x00, 0x00, 0x00, 0xf0, 0xc0, 0xff, 0xff,
  0x14, 0x00, 0x00, 0x00, 0x14, 0x00, 0x00, 0x00, 0x18, 0x00, 0x00, 0x00,
  0x48, 0x00, 0x00, 0x00, 0x38, 0x00, 0x00, 0x00, 0x02, 0x00, 0x00, 0x00,
  0x01, 0x00, 0x00, 0x00, 0x01, 0x00, 0x00, 0x00, 0x22, 0x00, 0x00, 0x00,
  0x73, 0x65, 0x71, 0x75, 0x65, 0x6e, 0x74, 0x69, 0x61, 0x6c, 0x2f, 0x64,
  0x65, 0x6e, 0x73, 0x65, 0x2f, 0x54, 0x65, 0x6e, 0x73, 0x6f, 0x72, 0x64,
  0x6f, 0x74, 0x2f, 0x52, 0x65, 0x73, 0x68, 0x61, 0x70, 0x65, 0x00, 0x00,
  0x02, 0x00, 0x00, 0x00, 0xff, 0xff, 0xff, 0xff, 0xff, 0xff, 0xff, 0xff,
  0xd4, 0xc0, 0xff, 0xff, 0x3e, 0xfd, 0xff, 0xff, 0x00, 0x00, 0x00, 0x0a,
  0x04, 0x00, 0x00, 0x00, 0x18, 0x00, 0x00, 0x00, 0x0c, 0x00, 0x00, 0x00,
  0x04, 0x00, 0x00, 0x00, 0xf0, 0xc0, 0xff, 0xff, 0x01, 0x00, 0x00, 0x00,
  0x12, 0x00, 0x00, 0x00, 0x02, 0x00, 0x00, 0x00, 0x0f, 0x00, 0x00, 0x00,
  0x08, 0x00, 0x00, 0x00, 0x64, 0xfc, 0xff, 0xff, 0x02, 0x00, 0x00, 0x00,
  0x00, 0x00, 0x00, 0x02, 0x01, 0x00, 0x00, 0x00, 0x3e, 0xc3, 0xff, 0xff,
  0x00, 0x00, 0x00, 0x02, 0x10, 0x00, 0x00, 0x00, 0x13, 0x00, 0x00, 0x00,
  0x10, 0x00, 0x00, 0x00, 0x34, 0x00, 0x00, 0x00, 0x01, 0x00, 0x00, 0x00,
  0x03, 0x00, 0x00, 0x00, 0x23, 0x00, 0x00, 0x00, 0x73, 0x65, 0x71, 0x75,
  0x65, 0x6e, 0x74, 0x69, 0x61, 0x6c, 0x2f, 0x64, 0x65, 0x6e, 0x73, 0x65,
  0x2f, 0x54, 0x65, 0x6e, 0x73, 0x6f, 0x72, 0x64, 0x6f, 0x74, 0x2f, 0x63,
  0x6f, 0x6e, 0x63, 0x61, 0x74, 0x5f, 0x31, 0x00, 0x60, 0xc1, 0xff, 0xff,
  0xca, 0xfd, 0xff, 0xff, 0x00, 0x00, 0x00, 0x3b, 0x03, 0x00, 0x00, 0x00,
  0x1c, 0x00, 0x00, 0x00, 0x10, 0x00, 0x00, 0x00, 0x04, 0x00, 0x00, 0x00,
  0x4a, 0xc2, 0xff, 0xff, 0x02, 0x00, 0x00, 0x00, 0x01, 0x00, 0x00, 0x00,
  0x11, 0x00, 0x00, 0x00, 0x02, 0x00, 0x00, 0x00, 0x10, 0x00, 0x00, 0x00,
  0x0e, 0x00, 0x00, 0x00, 0xf4, 0xfc, 0xff, 0xff, 0x53, 0x00, 0x00, 0x00,
  0x00, 0x00, 0x00, 0x53, 0x01, 0x00, 0x00, 0x00, 0xce, 0xc3, 0xff, 0xff,
  0x00, 0x00, 0x00, 0x02, 0x10, 0x00, 0x00, 0x00, 0x12, 0x00, 0x00, 0x00,
  0x10, 0x00, 0x00, 0x00, 0x34, 0x00, 0x00, 0x00, 0x01, 0x00, 0x00, 0x00,
  0x02, 0x00, 0x00, 0x00, 0x20, 0x00, 0x00, 0x00, 0x73, 0x65, 0x71, 0x75,
  0x65, 0x6e, 0x74, 0x69, 0x61, 0x6c, 0x2f, 0x64, 0x65, 0x6e, 0x73, 0x65,
  0x2f, 0x54, 0x65, 0x6e, 0x73, 0x6f, 0x72, 0x64, 0x6f, 0x74, 0x2f, 0x73,
  0x74, 0x61, 0x63, 0x6b, 0x00, 0x00, 0x00, 0x00, 0xf0, 0xc1, 0xff, 0xff,
  0x5a, 0xfe, 0xff, 0xff, 0x00, 0x00, 0x00, 0x1b, 0x02, 0x00, 0x00, 0x00,
  0x18, 0x00, 0x00, 0x00, 0x0c, 0x00, 0x00, 0x00, 0x04, 0x00, 0x00, 0x00,
  0x0c, 0xc2, 0xff, 0xff, 0x01, 0x00, 0x00, 0x00, 0x10, 0x00, 0x00, 0x00,
  0x02, 0x00, 0x00, 0x00, 0x0f, 0x00, 0x00, 0x00, 0x07, 0x00, 0x00, 0x00,
  0x4a, 0xc4, 0xff, 0xff, 0x00, 0x00, 0x00, 0x02, 0x10, 0x00, 0x00, 0x00,
  0x11, 0x00, 0x00, 0x00, 0x0c, 0x00, 0x00, 0x00, 0x2c, 0x00, 0x00, 0x00,
  0x00, 0x00, 0x00, 0x00, 0x1f, 0x00, 0x00, 0x00, 0x73, 0x65, 0x71, 0x75,
  0x65, 0x6e, 0x74, 0x69, 0x61, 0x6c, 0x2f, 0x64, 0x65, 0x6e, 0x73, 0x65,
  0x2f, 0x54, 0x65, 0x6e, 0x73, 0x6f, 0x72, 0x64, 0x6f, 0x74, 0x2f, 0x50,
  0x72, 0x6f, 0x64, 0x00, 0x64, 0xc2, 0xff, 0xff, 0xce, 0xfe, 0xff, 0xff,
  0x00, 0x00, 0x00, 0x17, 0x01, 0x00, 0x00, 0x00, 0x18, 0x00, 0x00, 0x00,
  0x0c, 0x00, 0x00, 0x00, 0x04, 0x00, 0x00, 0x00, 0x80, 0xc2, 0xff, 0xff,
  0x01, 0x00, 0x00, 0x00, 0x0f, 0x00, 0x00, 0x00, 0x02, 0x00, 0x00, 0x00,
  0x0c, 0x00, 0x00, 0x00, 0x04, 0x00, 0x00, 0x00, 0xbe, 0xc4, 0xff, 0xff,
  0x00, 0x00, 0x00, 0x02, 0x10, 0x00, 0x00, 0x00, 0x10, 0x00, 0x00, 0x00,
  0x10, 0x00, 0x00, 0x00, 0x60, 0x00, 0x00, 0x00, 0x01, 0x00, 0x00, 0x00,
  0x02, 0x00, 0x00, 0x00, 0x4c, 0x00, 0x00, 0x00, 0x73, 0x65, 0x71, 0x75,
  0x65, 0x6e, 0x74, 0x69, 0x61, 0x6c, 0x2f, 0x64, 0x65, 0x6e, 0x73, 0x65,
  0x2f, 0x54, 0x65, 0x6e, 0x73, 0x6f, 0x72, 0x64, 0x6f, 0x74, 0x2f, 0x47,
  0x61, 0x74, 0x68, 0x65, 0x72, 0x56, 0x32, 0x3b, 0x73, 0x65, 0x71, 0x75,
  0x65, 0x6e, 0x74, 0x69, 0x61, 0x6c, 0x2f, 0x64, 0x65, 0x6e, 0x73, 0x65,
  0x2f, 0x54, 0x65, 0x6e, 0x73, 0x6f, 0x72, 0x64, 0x6f, 0x74, 0x2f, 0x47,
  0x61, 0x74, 0x68, 0x65, 0x72, 0x56, 0x32, 0x2f, 0x61, 0x78, 0x69, 0x73,
  0x00, 0x00, 0x00, 0x00, 0x0c, 0xc3, 0xff, 0xff, 0x76, 0xff, 0xff, 0xff,
  0x00, 0x00, 0x00, 0x1b, 0x02, 0x00, 0x00, 0x00, 0x18, 0x00, 0x00, 0x00,
  0x0c, 0x00, 0x00, 0x00, 0x04, 0x00, 0x00, 0x00, 0x28, 0xc3, 0xff, 0xff,
  0x01, 0x00, 0x00, 0x00, 0x0e, 0x00, 0x00, 0x00, 0x02, 0x00, 0x00, 0x00,
  0x0d, 0x00, 0x00, 0x00, 0x07, 0x00, 0x00, 0x00, 0x9c, 0xfe, 0xff, 0xff,
  0x51, 0x00, 0x00, 0x00, 0x00, 0x00, 0x00, 0x51, 0x01, 0x00, 0x00, 0x00,
  0x76, 0xc5, 0xff, 0xff, 0x00, 0x00, 0x00, 0x02, 0x10, 0x00, 0x00, 0x00,
  0x0f, 0x00, 0x00, 0x00, 0x0c, 0x00, 0x00, 0x00, 0x30, 0x00, 0x00, 0x00,
  0x00, 0x00, 0x00, 0x00, 0x21, 0x00, 0x00, 0x00, 0x73, 0x65, 0x71, 0x75,
  0x65, 0x6e, 0x74, 0x69, 0x61, 0x6c, 0x2f, 0x64, 0x65, 0x6e, 0x73, 0x65,
  0x2f, 0x54, 0x65, 0x6e, 0x73, 0x6f, 0x72, 0x64, 0x6f, 0x74, 0x2f, 0x50,
  0x72, 0x6f, 0x64, 0x5f, 0x31, 0x00, 0x00, 0x00, 0x6c, 0xc4, 0xff, 0xff,
  0x00, 0x00, 0x0e, 0x00, 0x18, 0x00, 0x08, 0x00, 0x0c, 0x00, 0x10, 0x00,
  0x07, 0x00, 0x14, 0x00, 0x0e, 0x00, 0x00, 0x00, 0x00, 0x00, 0x00, 0x17,
  0x01, 0x00, 0x00, 0x00, 0x18, 0x00, 0x00, 0x00, 0x0c, 0x00, 0x00, 0x00,
  0x04, 0x00, 0x00, 0x00, 0xc0, 0xc3, 0xff, 0xff, 0x01, 0x00, 0x00, 0x00,
  0x0d, 0x00, 0x00, 0x00, 0x02, 0x00, 0x00, 0x00, 0x0c, 0x00, 0x00, 0x00,
  0x05, 0x00, 0x00, 0x00, 0x34, 0xff, 0xff, 0xff, 0x24, 0x00, 0x00, 0x00,
  0x00, 0x00, 0x00, 0x24, 0x01, 0x00, 0x00, 0x00, 0x0e, 0xc6, 0xff, 0xff,
  0x00, 0x00, 0x00, 0x02, 0x10, 0x00, 0x00, 0x00, 0x0e, 0x00, 0x00, 0x00,
  0x10, 0x00, 0x00, 0x00, 0x60, 0x00, 0x00, 0x00, 0x01, 0x00, 0x00, 0x00,
  0x01, 0x00, 0x00, 0x00, 0x4e, 0x00, 0x00, 0x00, 0x73, 0x65, 0x71, 0x75,
  0x65, 0x6e, 0x74, 0x69, 0x61, 0x6c, 0x2f, 0x64, 0x65, 0x6e, 0x73, 0x65,
  0x2f, 0x54, 0x65, 0x6e, 0x73, 0x6f, 0x72, 0x64, 0x6f, 0x74, 0x2f, 0x47,
  0x61, 0x74, 0x68, 0x65, 0x72, 0x56, 0x32, 0x5f, 0x31, 0x3b, 0x73, 0x65,
  0x71, 0x75, 0x65, 0x6e, 0x74, 0x69, 0x61, 0x6c, 0x2f, 0x64, 0x65, 0x6e,
  0x73, 0x65, 0x2f, 0x54, 0x65, 0x6e, 0x73, 0x6f, 0x72, 0x64, 0x6f, 0x74,
  0x2f, 0x47, 0x61, 0x74, 0x68, 0x65, 0x72, 0x56, 0x32, 0x2f, 0x61, 0x78,
  0x69, 0x73, 0x00, 0x00, 0x34, 0xc5, 0xff, 0xff, 0x00, 0x00, 0x0e, 0x00,
  0x16, 0x00, 0x00, 0x00, 0x08, 0x00, 0x0c, 0x00, 0x07, 0x00, 0x10, 0x00,
  0x0e, 0x00, 0x00, 0x00, 0x00, 0x00, 0x00, 0x37, 0x24, 0x00, 0x00, 0x00,
  0x18, 0x00, 0x00, 0x00, 0x0c, 0x00, 0x00, 0x00, 0x00, 0x00, 0x06, 0x00,
  0x08, 0x00, 0x07, 0x00, 0x06, 0x00, 0x00, 0x00, 0x00, 0x00, 0x00, 0x02,
  0x01, 0x00, 0x00, 0x00, 0x0c, 0x00, 0x00, 0x00, 0x01, 0x00, 0x00, 0x00,
  0x00, 0x00, 0x00, 0x00, 0x0c, 0x00, 0x10, 0x00, 0x0b, 0x00, 0x00, 0x00,
  0x0c, 0x00, 0x04, 0x00, 0x0c, 0x00, 0x00, 0x00, 0x4d, 0x00, 0x00, 0x00,
  0x00, 0x00, 0x00, 0x4d, 0x01, 0x00, 0x00, 0x00, 0xe6, 0xc6, 0xff, 0xff,
  0x00, 0x00, 0x00, 0x02, 0x10, 0x00, 0x00, 0x00, 0x0d, 0x00, 0x00, 0x00,
  0x10, 0x00, 0x00, 0x00, 0x34, 0x00, 0x00, 0x00, 0x01, 0x00, 0x00, 0x00,
  0x03, 0x00, 0x00, 0x00, 0x20, 0x00, 0x00, 0x00, 0x73, 0x65, 0x71, 0x75,
  0x65, 0x6e, 0x74, 0x69, 0x61, 0x6c, 0x2f, 0x64, 0x65, 0x6e, 0x73, 0x65,
  0x2f, 0x54, 0x65, 0x6e, 0x73, 0x6f, 0x72, 0x64, 0x6f, 0x74, 0x2f, 0x53,
  0x68, 0x61, 0x70, 0x65, 0x00, 0x00, 0x00, 0x00, 0x08, 0xc5, 0xff, 0xff,
  0xda, 0xc5, 0xff, 0xff, 0x04, 0x00, 0x00, 0x00, 0x40, 0x00, 0x00, 0x00,
  0xc9, 0x9d, 0x7b, 0x3e, 0xbd, 0xf7, 0xd8, 0x3d, 0x4d, 0x0f, 0xf2, 0xbe,
  0xbd, 0x45, 0xec, 0xbe, 0xe7, 0x16, 0xec, 0x3c, 0x71, 0xad, 0x9f, 0xbb,
  0x7c, 0x8e, 0x69, 0xbe, 0xaa, 0x1f, 0x31, 0x3d, 0x7a, 0x33, 0xbc, 0xbd,
  0x52, 0x1b, 0x35, 0x3d, 0x8d, 0x69, 0x8b, 0xbc, 0x1e, 0xf9, 0xc9, 0x3e,
  0xbc, 0x67, 0xe9, 0xbe, 0x97, 0xbb, 0xfb, 0x3e, 0x2d, 0x67, 0x11, 0xbd,
  0x49, 0x64, 0xce, 0x3e, 0x0e, 0xc6, 0xff, 0xff, 0x10, 0x00, 0x00, 0x00,
  0x0c, 0x00, 0x00, 0x00, 0x14, 0x00, 0x00, 0x00, 0x38, 0x00, 0x00, 0x00,
  0x02, 0x00, 0x00, 0x00, 0x01, 0x00, 0x00, 0x00, 0x10, 0x00, 0x00, 0x00,
  0x23, 0x00, 0x00, 0x00, 0x73, 0x65, 0x71, 0x75, 0x65, 0x6e, 0x74, 0x69,
  0x61, 0x6c, 0x2f, 0x64, 0x65, 0x6e, 0x73, 0x65, 0x5f, 0x32, 0x2f, 0x54,
  0x65, 0x6e, 0x73, 0x6f, 0x72, 0x64, 0x6f, 0x74, 0x2f, 0x4d, 0x61, 0x74,
  0x4d, 0x75, 0x6c, 0x00, 0xa0, 0xc5, 0xff, 0xff, 0x72, 0xc6, 0xff, 0xff,
  0x04, 0x00, 0x00, 0x00, 0x00, 0x04, 0x00, 0x00, 0x41, 0x52, 0x71, 0xbe,
  0x65, 0x7b, 0x92, 0x3e, 0xa1, 0xd3, 0x73, 0xbd, 0xaa, 0xba, 0x06, 0xbd,
  0x35, 0xae, 0x3d, 0x3e, 0x3c, 0x5f, 0xf6, 0xbd, 0x67, 0x01, 0xcd, 0x3e,
  0xc4, 0x6f, 0x22, 0xbe, 0x6b, 0xcd, 0x2a, 0x3d, 0xf3, 0x3f, 0xeb, 0xbe,
  0x1b, 0xc5, 0xac, 0x3e, 0x52, 0x9e, 0x8c, 0xbe, 0xc8, 0x4a, 0xeb, 0xbd,
  0x9c, 0xcd, 0xad, 0x3d, 0xe1, 0x07, 0xa6, 0x3e, 0xdb, 0x0d, 0xa3, 0xbe,
  0x35, 0x67, 0x2a, 0xbe, 0x6d, 0xc9, 0x0b, 0x3e, 0xf7, 0x9e, 0xab, 0x3e,
  0xdf, 0xf6, 0x92, 0xbd, 0xb4, 0x9c, 0x21, 0x3e, 0x6f, 0xd7, 0x85, 0xbd,
  0xa4, 0xef, 0xce, 0x3d, 0xe8, 0x55, 0x27, 0xbe, 0x90, 0x2e, 0x89, 0xbe,
  0x2f, 0x1c, 0x2e, 0x3e, 0x88, 0x8a, 0xa9, 0x3e, 0xe4, 0xdc, 0xba, 0xbe,
  0x3e, 0xab, 0x3c, 0xbe, 0xa0, 0xf1, 0x33, 0xbc, 0x4a, 0xf0, 0xd5, 0x3d,
  0xfc, 0x82, 0xd4, 0xbe, 0xa1, 0xa6, 0x40, 0x3e, 0x01, 0xb1, 0xca, 0x3e,
  0xd3, 0x08, 0xe3, 0x3d, 0x97, 0x06, 0x3c, 0xbe, 0x8b, 0xcd, 0x26, 0xbe,
  0x1d, 0x6b, 0x70, 0x3e, 0xe7, 0x21, 0xa4, 0x3e, 0x0b, 0xae, 0x96, 0xbe,
  0x7a, 0x00, 0xc3, 0x3e, 0x8d, 0x5f, 0xb1, 0x3e, 0xbf, 0xe8, 0xbc, 0xbe,
  0xfd, 0x5b, 0xc8, 0xbe, 0xb4, 0x59, 0x3a, 0x3e, 0x26, 0xef, 0x31, 0x3e,
  0x08, 0xe9, 0x03, 0xbe, 0x28, 0x12, 0xcf, 0xbe, 0xa1, 0x38, 0x12, 0x3d,
  0x54, 0x99, 0x4b, 0xbe, 0x56, 0x27, 0xa3, 0xbd, 0xb8, 0x12, 0x23, 0xbc,
  0xeb, 0x8f, 0xa3, 0x3e, 0xa8, 0x78, 0xd8, 0xbe, 0xca, 0x94, 0xad, 0x3e,
  0x06, 0x83, 0xb8, 0xbe, 0x74, 0x02, 0xab, 0xbd, 0xaf, 0x14, 0x5e, 0xbe,
  0x89, 0x18, 0x97, 0x3e, 0x81, 0x21, 0x09, 0xbe, 0x85, 0x7b, 0x8a, 0xbd,
  0x27, 0x65, 0x62, 0xbe, 0xa3, 0xe0, 0x23, 0x3e, 0x09, 0xab, 0x83, 0x3e,
  0x82, 0x35, 0x48, 0xbe, 0xf0, 0x48, 0x9b, 0xbe, 0xf6, 0x3a, 0x29, 0x3d,
  0x20, 0x2a, 0x72, 0xbd, 0x87, 0x28, 0xa9, 0xbe, 0xc4, 0x80, 0x08, 0xbd,
  0xda, 0xe8, 0x99, 0x3e, 0xdf, 0x3f, 0x28, 0x3e, 0x7f, 0x6c, 0xb7, 0xbe,
  0xbf, 0xf0, 0x13, 0xbe, 0xc8, 0x97, 0x8e, 0xbe, 0xa4, 0x02, 0xb2, 0x3e,
  0x06, 0x6e, 0x12, 0xbe, 0xe7, 0xc2, 0xb9, 0xbe, 0x94, 0x26, 0xa3, 0xbe,
  0x66, 0x61, 0xa8, 0xbe, 0x4b, 0x36, 0x11, 0x3e, 0xbb, 0x69, 0x92, 0xbd,
  0x35, 0xcf, 0x90, 0xbe, 0xa7, 0xb5, 0x5f, 0x3e, 0xa9, 0x39, 0x9b, 0xbe,
  0x00, 0xae, 0x2a, 0x3d, 0xa6, 0x07, 0x4a, 0xbd, 0x77, 0xa3, 0xbc, 0x3e,
  0x94, 0x8c, 0x35, 0xbe, 0x7c, 0xc3, 0x9d, 0x3d, 0x86, 0x3b, 0x9e, 0xbe,
  0x87, 0x04, 0xe0, 0xbd, 0x9d, 0xa4, 0x9a, 0x3e, 0xc5, 0xa5, 0xaf, 0x3e,
  0x83, 0x29, 0xae, 0xbd, 0x3e, 0x58, 0x2b, 0x3e, 0x95, 0xff, 0x94, 0x3e,
  0x5c, 0x77, 0xa9, 0x3d, 0xa9, 0x69, 0x88, 0x3e, 0x14, 0xeb, 0x23, 0xbe,
  0xb3, 0x2c, 0x03, 0x3d, 0x47, 0x0e, 0x29, 0xbc, 0x00, 0x0b, 0x1e, 0xbd,
  0x34, 0x86, 0x47, 0x3b, 0x6b, 0x78, 0x73, 0xbc, 0x05, 0x50, 0xc1, 0xbe,
  0x88, 0x3b, 0x05, 0xbd, 0x80, 0xfa, 0x97, 0xbd, 0x30, 0x86, 0xd3, 0xbe,
  0x86, 0x14, 0x22, 0x3e, 0x02, 0x67, 0x96, 0xbd, 0x24, 0xc6, 0xc6, 0xbd,
  0x04, 0x50, 0x96, 0x3d, 0xa0, 0xec, 0x5f, 0xbe, 0x17, 0x25, 0x88, 0xbe,
  0x7b, 0x13, 0x1e, 0x3e, 0x3a, 0x8f, 0xa5, 0x3e, 0xda, 0x32, 0xf0, 0xbc,
  0x0b, 0xd2, 0xa5, 0x3d, 0x13, 0x7c, 0x93, 0xbe, 0x14, 0xa4, 0x4c, 0xbe,
  0x50, 0x53, 0x91, 0xbe, 0x12, 0x08, 0xae, 0x3e, 0x67, 0xd6, 0x69, 0x3e,
  0x6c, 0x86, 0x86, 0x3e, 0x0c, 0x9b, 0xab, 0xbe, 0x9f, 0xaa, 0x47, 0xbe,
  0xa0, 0xc5, 0xae, 0xbd, 0x78, 0xdc, 0xa3, 0x3e, 0xd6, 0x25, 0xb6, 0x3e,
  0x4e, 0x44, 0x5e, 0x3e, 0xb6, 0x67, 0xdf, 0xbe, 0x6e, 0xf8, 0x4c, 0x3e,
  0xe7, 0xd0, 0xbe, 0x3e, 0xe0, 0xdb, 0x29, 0xbe, 0x93, 0x00, 0x11, 0xbe,
  0x1d, 0x37, 0x37, 0x3e, 0x8e, 0x04, 0xd7, 0xbd, 0xb9, 0xda, 0x9f, 0xbe,
  0x46, 0xfd, 0x8a, 0xbe, 0x38, 0x03, 0x32, 0x3d, 0x27, 0xcd, 0x73, 0xbe,
  0xbe, 0xd3, 0x63, 0xbe, 0x50, 0x57, 0x3c, 0x3d, 0xd3, 0xd0, 0xb9, 0xbc,
  0xda, 0xaa, 0x7c, 0x3e, 0xac, 0x5c, 0xfc, 0xbd, 0x08, 0x58, 0xae, 0x3d,
  0xf6, 0x7c, 0x94, 0x3e, 0x50, 0xd6, 0x1d, 0x3d, 0x30, 0x4b, 0x88, 0x3e,
  0x62, 0x2b, 0x77, 0x3e, 0x15, 0x73, 0xcc, 0xbd, 0xb8, 0x79, 0x70, 0xb9,
  0x15, 0x4a, 0x16, 0xbd, 0xa5, 0x1b, 0x97, 0x3d, 0x29, 0x43, 0x0a, 0xbe,
  0x7c, 0x07, 0xbc, 0x3d, 0xd0, 0x9c, 0x49, 0x3e, 0xd8, 0xb4, 0x82, 0xbd,
  0xa6, 0x6e, 0xca, 0x3e, 0x6f, 0xeb, 0xaf, 0x3e, 0x61, 0x62, 0xa5, 0xbd,
  0xd0, 0x1a, 0xac, 0xbe, 0x13, 0xe1, 0x16, 0x3e, 0x37, 0xa9, 0xab, 0x3e,
  0xab, 0xae, 0xc7, 0xbe, 0xdb, 0xa2, 0x5c, 0xbe, 0x6f, 0xd1, 0xed, 0x3d,
  0x1c, 0x8f, 0xbc, 0xbe, 0x5e, 0xa1, 0xea, 0xbe, 0xd3, 0x90, 0xcb, 0x3e,
  0x7e, 0xd8, 0x57, 0xbe, 0xcb, 0xa8, 0xd7, 0x3e, 0x5e, 0xf8, 0x7c, 0xbe,
  0x22, 0x6c, 0x8f, 0xbe, 0x98, 0xcf, 0xbb, 0xbe, 0xb0, 0x95, 0x8f, 0x3e,
  0x48, 0x2c, 0xca, 0x3e, 0x98, 0x78, 0xbd, 0x3e, 0x9e, 0xbb, 0xd1, 0xbd,
  0x11, 0xd5, 0x41, 0xbe, 0xb9, 0x06, 0x52, 0xbe, 0x2d, 0x72, 0x7a, 0x3e,
  0x26, 0x03, 0x8e, 0xbe, 0x8c, 0xac, 0x65, 0x3e, 0xaf, 0xd3, 0x42, 0xbe,
  0xcf, 0x09, 0xea, 0xbe, 0x8b, 0xea, 0xc6, 0xbe, 0x4c, 0x72, 0x81, 0xbe,
  0xe8, 0x2f, 0x33, 0x3e, 0xcd, 0xb9, 0x76, 0xbe, 0x1d, 0x6a, 0xd1, 0x3e,
  0x6b, 0x1e, 0x36, 0xbe, 0x5f, 0xf5, 0x47, 0xbe, 0xcc, 0x9e, 0xd1, 0x3b,
  0xa7, 0x99, 0x23, 0x3d, 0xe5, 0x0b, 0xf1, 0xbd, 0x71, 0xa4, 0xbd, 0xbe,
  0xae, 0x1a, 0x96, 0xbe, 0x29, 0x36, 0xfc, 0x3d, 0xef, 0x5f, 0x32, 0xbc,
  0xda, 0x39, 0xfd, 0xbd, 0x75, 0x9d, 0xdc, 0xbe, 0x99, 0xee, 0x25, 0xbe,
  0xef, 0x81, 0x6a, 0xbe, 0xe3, 0x46, 0xc4, 0xbd, 0xfe, 0xc5, 0x51, 0x3e,
  0x7f, 0x3f, 0x94, 0x3e, 0xb8, 0x5e, 0x39, 0xbe, 0xa1, 0x9f, 0xa7, 0xbe,
  0xbd, 0x52, 0x93, 0x3e, 0xb4, 0x78, 0x48, 0xbd, 0x58, 0x99, 0x27, 0xbe,
  0x10, 0x9d, 0xbc, 0x3e, 0x7e, 0x8a, 0x13, 0xbe, 0x1d, 0xea, 0x5f, 0xbe,
  0x06, 0x10, 0xb4, 0xbe, 0xe2, 0x18, 0xbb, 0x3e, 0xe6, 0x9f, 0x54, 0xbe,
  0xb7, 0x53, 0x90, 0x3e, 0x54, 0x4e, 0x8d, 0x3d, 0x58, 0xeb, 0xb4, 0xbe,
  0x76, 0x5b, 0xd2, 0xbe, 0x1d, 0xd8, 0x0a, 0x3e, 0x2c, 0xe6, 0x2b, 0x3c,
  0xd5, 0x4f, 0xad, 0x3e, 0x11, 0xf2, 0x92, 0xbe, 0x80, 0xda, 0xc4, 0x3e,
  0x22, 0x85, 0x76, 0xbe, 0xa9, 0x42, 0x80, 0x3e, 0xf0, 0xd2, 0xe2, 0x3d,
  0xd1, 0x0f, 0xb2, 0xbe, 0xd2, 0xd5, 0x4d, 0xbe, 0x87, 0x3c, 0x3b, 0x3d,
  0x47, 0x05, 0xb8, 0xbe, 0xed, 0x1b, 0x97, 0xbe, 0x82, 0x48, 0x2c, 0xbe,
  0x80, 0x0f, 0xdb, 0x3d, 0x70, 0x37, 0x66, 0xbe, 0x42, 0xc0, 0xab, 0x3e,
  0xc2, 0x90, 0xa9, 0xbc, 0x30, 0x17, 0x80, 0x3e, 0x1c, 0x51, 0xdf, 0xbe,
  0x68, 0xf9, 0xe0, 0xbd, 0x26, 0xa5, 0x85, 0x3e, 0x83, 0x73, 0xa1, 0x3e,
  0xd0, 0x8a, 0x62, 0x3c, 0x8c, 0x29, 0x5b, 0x3e, 0xdf, 0x5a, 0x15, 0xbb,
  0xa0, 0xa1, 0xad, 0x3e, 0xe6, 0xf0, 0xc1, 0xbe, 0x39, 0x21, 0xbe, 0x3e,
  0x4a, 0x69, 0x14, 0xbe, 0x4d, 0x69, 0x5a, 0xbd, 0x3e, 0xbf, 0x53, 0x3e,
  0x66, 0xca, 0xff, 0xff, 0x10, 0x00, 0x00, 0x00, 0x0b, 0x00, 0x00, 0x00,
  0x14, 0x00, 0x00, 0x00, 0x38, 0x00, 0x00, 0x00, 0x02, 0x00, 0x00, 0x00,
  0x10, 0x00, 0x00, 0x00, 0x10, 0x00, 0x00, 0x00, 0x23, 0x00, 0x00, 0x00,
  0x73, 0x65, 0x71, 0x75, 0x65, 0x6e, 0x74, 0x69, 0x61, 0x6c, 0x2f, 0x64,
  0x65, 0x6e, 0x73, 0x65, 0x5f, 0x31, 0x2f, 0x54, 0x65, 0x6e, 0x73, 0x6f,
  0x72, 0x64, 0x6f, 0x74, 0x2f, 0x4d, 0x61, 0x74, 0x4d, 0x75, 0x6c, 0x00,
  0xf8, 0xc9, 0xff, 0xff, 0xca, 0xca, 0xff, 0xff, 0x04, 0x00, 0x00, 0x00,
  0x00, 0x32, 0x00, 0x00, 0x85, 0x8b, 0x02, 0x3e, 0x15, 0x1c, 0x09, 0x3e,
  0xa7, 0xbc, 0x1b, 0xbd, 0x55, 0xd1, 0x3c, 0x3d, 0x0d, 0x68, 0x88, 0x3d,
  0xbf, 0xad, 0x87, 0x3d, 0xc3, 0x07, 0xcd, 0xbc, 0x91, 0x75, 0xef, 0xbd,
  0xf0, 0xf2, 0xb6, 0xbc, 0x8f, 0x05, 0x02, 0xbd, 0xf2, 0xdf, 0x38, 0x3d,
  0x74, 0xf9, 0xf1, 0xbd, 0x90, 0xb0, 0xaa, 0x3c, 0x60, 0x35, 0x98, 0xbd,
  0xdb, 0x17, 0x14, 0x3e, 0xde, 0x2a, 0x0f, 0x3e, 0x45, 0x9b, 0xfa, 0xbd,
  0x90, 0x13, 0xe2, 0xbd, 0x7e, 0x68, 0x01, 0xbe, 0xde, 0x3c, 0xb9, 0x3d,
  0x29, 0x4b, 0x2f, 0x3d, 0x0d, 0xc1, 0xd5, 0xbd, 0x73, 0x13, 0x0d, 0x3e,
  0xb9, 0x2d, 0x8c, 0xbd, 0x96, 0xd8, 0x16, 0xbe, 0xf8, 0x46, 0xed, 0x3d,
  0x20, 0x8a, 0x10, 0x3e, 0xfc, 0xdf, 0xcb, 0xb9, 0xe7, 0xa0, 0xfe, 0x3d,
  0xe4, 0xaf, 0x0d, 0x3d, 0xa4, 0x27, 0xea, 0xbd, 0x3c, 0x30, 0x35, 0xbe,
  0x45, 0x81, 0x9d, 0x3d, 0xf2, 0xf4, 0xdb, 0x3c, 0x22, 0xc3, 0x93, 0xbc,
  0xda, 0xa8, 0x1e, 0xbe, 0x46, 0x1e, 0x88, 0x3d, 0x9c, 0xdc, 0xfa, 0xbd,
  0x2c, 0x75, 0x78, 0xbc, 0x2b, 0xbf, 0xd6, 0x3d, 0x1e, 0x42, 0x06, 0xbe,
  0x54, 0x7f, 0xc6, 0xbd, 0x25, 0x01, 0xd5, 0x3d, 0xe8, 0x10, 0xab, 0xbd,
  0xaf, 0x1a, 0x88, 0xbd, 0x84, 0x81, 0xdb, 0x3d, 0xd9, 0x44, 0x12, 0x3e,
  0xae, 0xfb, 0xf5, 0xbd, 0xb0, 0x3b, 0x4e, 0x3c, 0xaa, 0x7a, 0xe4, 0x3a,
  0x5b, 0x35, 0x1c, 0xbe, 0xf7, 0x60, 0xd8, 0x3d, 0x78, 0x4d, 0x9b, 0xbd,
  0xe8, 0x63, 0xbd, 0x3d, 0xe7, 0x5a, 0x16, 0x3e, 0xaa, 0x39, 0xe2, 0x3d,
  0x61, 0xd6, 0x12, 0xbe, 0xb9, 0xca, 0x39, 0xbe, 0x6e, 0xaa, 0x21, 0xbd,
  0xb0, 0xd4, 0x0d, 0x3e, 0x7e, 0xa9, 0x87, 0xbd, 0xfd, 0xd0, 0xc6, 0xbd,
  0x70, 0x30, 0x92, 0x3c, 0xd8, 0x79, 0x2f, 0xbe, 0x1a, 0xd5, 0x1e, 0x3e,
  0x67, 0x05, 0x0d, 0x3e, 0xb9, 0x1c, 0x15, 0xbe, 0x7b, 0xb6, 0x12, 0x3e,
  0x15, 0xc0, 0x45, 0xbd, 0xb6, 0x54, 0x00, 0xbe, 0x58, 0x13, 0xf5, 0xbb,
  0x83, 0x94, 0x01, 0xbe, 0xba, 0x37, 0x27, 0xbe, 0x4d, 0x4a, 0x6a, 0xbc,
  0x83, 0x23, 0xf6, 0x3d, 0x9f, 0x4f, 0xa6, 0xbc, 0x28, 0xf9, 0xbc, 0x3d,
  0x71, 0x80, 0x29, 0xbe, 0xea, 0xe8, 0x19, 0x3d, 0x81, 0x1e, 0xb1, 0x3d,
  0xb4, 0xb5, 0x16, 0xbc, 0x0e, 0xc3, 0xd4, 0xbc, 0x16, 0x39, 0xa4, 0x3d,
  0x0d, 0x7d, 0x1b, 0xbd, 0x76, 0xed, 0xb7, 0x3c, 0x58, 0xe3, 0x31, 0xbe,
  0x02, 0x35, 0x27, 0xbd, 0x5a, 0xe4, 0x97, 0x3c, 0xcd, 0x06, 0x12, 0xbe,
  0x6b, 0x77, 0x34, 0xbe, 0xe2, 0x67, 0xd5, 0x3d, 0x16, 0x9a, 0x3f, 0xbd,
  0x1c, 0x7c, 0x2d, 0x3d, 0x5e, 0xd9, 0xfa, 0xbd, 0x98, 0xe4, 0x89, 0xbd,
  0x94, 0x3b, 0x7d, 0x3d, 0xb4, 0x17, 0x01, 0x3d, 0x78, 0x91, 0xe4, 0x3d,
  0x26, 0x4c, 0x96, 0x3d, 0x8b, 0x2a, 0x8f, 0x3c, 0xfb, 0x27, 0xbc, 0x3d,
  0x7d, 0x81, 0x15, 0x3e, 0x2e, 0x0b, 0x96, 0x3d, 0x89, 0xa1, 0x8a, 0x3d,
  0xc0, 0x55, 0x75, 0x3d, 0x4c, 0x9c, 0x4a, 0x3d, 0x3b, 0x27, 0x7a, 0x3d,
  0x2a, 0xa9, 0xe1, 0x3c, 0x94, 0x10, 0xd8, 0xbd, 0x1d, 0xd3, 0xa7, 0xbb,
  0x28, 0x14, 0x0f, 0xbe, 0x93, 0x86, 0x3c, 0x3d, 0xe4, 0x40, 0x18, 0xbd,
  0xca, 0xa9, 0x08, 0xbe, 0xdf, 0x4b, 0x5b, 0x3d, 0xac, 0xcc, 0x0b, 0xbe,
  0xcd, 0x1c, 0x11, 0xbd, 0x65, 0x59, 0x04, 0xbe, 0x01, 0x31, 0x02, 0x3e,
  0x0c, 0xfe, 0xab, 0x3d, 0xbf, 0x22, 0x61, 0xbd, 0xe3, 0x06, 0x36, 0xbe,
  0x0a, 0xb7, 0x16, 0x3e, 0xf6, 0xe2, 0xac, 0xbd, 0x0e, 0xa8, 0x02, 0xbe,
  0xd4, 0x15, 0xe4, 0xbc, 0x77, 0x53, 0x6b, 0xbd, 0xa5, 0x48, 0x6e, 0x3c,
  0xce, 0x51, 0x7a, 0x3d, 0xb0, 0x86, 0x2c, 0xbe, 0xe0, 0xcf, 0xec, 0xbd,
  0x3a, 0x84, 0xce, 0xbd, 0x2c, 0x8f, 0x2e, 0xbe, 0x77, 0xd2, 0xbf, 0x3d,
  0x53, 0xeb, 0xa9, 0x3d, 0x23, 0x80, 0x98, 0x3d, 0x4d, 0x3b, 0x23, 0xbe,
  0xcd, 0x37, 0x1d, 0x3d, 0x55, 0xfb, 0xbd, 0xbd, 0xb3, 0x46, 0x51, 0x3d,
  0x5b, 0x7a, 0x2a, 0xbe, 0x84, 0x4f, 0xf1, 0xbd, 0x94, 0x25, 0x19, 0xbe,
  0x41, 0x18, 0xa3, 0xbd, 0xdd, 0x20, 0x36, 0xbd, 0x66, 0xfb, 0x06, 0x3d,
  0x98, 0x58, 0x47, 0xbc, 0x08, 0xfe, 0x7c, 0xbb, 0xdc, 0xd8, 0x8c, 0x3c,
  0xdc, 0x68, 0xdf, 0xbd, 0x52, 0x53, 0xda, 0xbd, 0xd4, 0x1f, 0x1c, 0xbe,
  0xb0, 0xfc, 0xad, 0xbc, 0x66, 0xca, 0xc9, 0xbc, 0x87, 0x98, 0x7e, 0x3d,
  0x5c, 0x57, 0xa9, 0xbd, 0xf6, 0x34, 0xc5, 0xbb, 0x89, 0xd7, 0xca, 0x3c,
  0x2c, 0xc2, 0x59, 0x3d, 0x4c, 0x15, 0xfd, 0xbd, 0x19, 0x7b, 0x35, 0xbe,
  0xc4, 0x4f, 0x0a, 0x3e, 0xac, 0xa0, 0x16, 0x3d, 0x79, 0xd4, 0x0e, 0xbe,
  0x37, 0x9c, 0xa6, 0x3c, 0xc3, 0x1b, 0x5a, 0xbd, 0x79, 0x6f, 0x2a, 0xbd,
  0x9d, 0xe7, 0x97, 0xbd, 0x41, 0x97, 0xbf, 0xbd, 0x46, 0x1f, 0x13, 0xbd,
  0xba, 0xb5, 0x11, 0xbd, 0x9e, 0x98, 0xa7, 0xbd, 0xdc, 0x11, 0xf6, 0x3a,
  0xd6, 0xc5, 0x6a, 0x3d, 0x59, 0x70, 0xe8, 0xbc, 0xbc, 0x41, 0xf3, 0xbb,
  0x69, 0x38, 0x63, 0xbd, 0x58, 0x25, 0x00, 0xbe, 0x0a, 0x88, 0x81, 0xbd,
  0x05, 0xce, 0x08, 0xbe, 0xa1, 0xe8, 0x23, 0x3d, 0x41, 0x0b, 0xce, 0x3d,
  0xf8, 0xb7, 0xc3, 0x3d, 0x20, 0x1d, 0x10, 0x3e, 0xa7, 0xae, 0xda, 0xbd,
  0x50, 0xaf, 0xea, 0xbc, 0xde, 0x34, 0x47, 0x3d, 0x2e, 0xf7, 0x5d, 0x3d,
  0x40, 0xf5, 0xa7, 0x3d, 0x10, 0xc6, 0xf2, 0x3d, 0x53, 0x00, 0x94, 0xbd,
  0xf7, 0x07, 0x83, 0x3d, 0xb5, 0x46, 0xe2, 0xbd, 0x26, 0x63, 0xf2, 0x3d,
  0x64, 0x0c, 0x8b, 0xbd, 0xe7, 0x8a, 0xdc, 0xbd, 0x87, 0x9d, 0x06, 0xbe,
  0x49, 0x52, 0xa6, 0xbd, 0xa5, 0x2b, 0x02, 0x3e, 0x54, 0x82, 0x43, 0x3d,
  0x67, 0x62, 0x27, 0xbe, 0xa6, 0xe7, 0x15, 0xbd, 0x8a, 0x64, 0xb8, 0x3d,
  0xd1, 0xa8, 0x64, 0x3d, 0x3e, 0x79, 0xd7, 0xbc, 0x00, 0x02, 0x06, 0x3e,
  0x19, 0x91, 0x7a, 0xbb, 0xfe, 0x3e, 0x70, 0xbb, 0xf2, 0x54, 0x01, 0x3e,
  0x77, 0x9f, 0xdd, 0x3d, 0x24, 0xb7, 0x20, 0xbc, 0xac, 0x37, 0x21, 0xbe,
  0x5e, 0xbe, 0xf8, 0x3d, 0x4f, 0x34, 0x60, 0x3d, 0x2e, 0xc4, 0x2a, 0xbe,
  0xde, 0x5c, 0x24, 0x3c, 0xbc, 0xf3, 0x17, 0x3d, 0x5c, 0x70, 0x5a, 0x3d,
  0x8a, 0x00, 0x19, 0x3c, 0x72, 0xe2, 0x62, 0xbd, 0xf1, 0xb7, 0xd6, 0xbd,
  0xba, 0x54, 0x19, 0x3d, 0x3a, 0x22, 0x5f, 0xbc, 0x06, 0x6e, 0x16, 0x3e,
  0x12, 0x9b, 0xf9, 0xbd, 0xbd, 0x33, 0x38, 0xbe, 0xdc, 0x78, 0xc6, 0x3d,
  0xab, 0x77, 0x6a, 0xbd, 0xd6, 0xb4, 0x04, 0x3b, 0x11, 0x0d, 0x1d, 0xbe,
  0x4e, 0x96, 0xb5, 0xbd, 0x8a, 0xef, 0x2e, 0xbe, 0x3c, 0xab, 0x0e, 0x3d,
  0xbb, 0x32, 0x1d, 0xbd, 0x1d, 0xaa, 0x0e, 0xbe, 0x9c, 0x67, 0x10, 0x3d,
  0x24, 0xcb, 0xce, 0xbc, 0x62, 0x86, 0x0b, 0xbe, 0xf0, 0x79, 0x7f, 0xbd,
  0x75, 0xd3, 0x52, 0x3d, 0xcf, 0xc6, 0xb1, 0xbd, 0x60, 0x89, 0xda, 0x3b,
  0x3c, 0x1f, 0xca, 0x3d, 0xaa, 0xd3, 0xeb, 0xbd, 0x17, 0x99, 0xe9, 0x3d,
  0xfb, 0xb2, 0x42, 0xbd, 0x24, 0xe8, 0x02, 0x3e, 0xd6, 0x73, 0x37, 0xbb,
  0x66, 0xa3, 0x48, 0x3d, 0x41, 0x44, 0x39, 0x3d, 0x84, 0xfb, 0xb7, 0x3d,
  0x51, 0x13, 0xb6, 0xbd, 0x3f, 0x9b, 0xce, 0xbd, 0xf0, 0xe0, 0x0d, 0xbe,
  0x34, 0xda, 0xd1, 0xbd, 0xb6, 0x09, 0xac, 0x3d, 0xfb, 0x62, 0xb8, 0xbc,
  0x99, 0xd9, 0x1f, 0xbd, 0xe1, 0xb8, 0xdc, 0x3c, 0xc4, 0x0e, 0x1b, 0xbd,
  0xe0, 0x96, 0x82, 0xbd, 0xfc, 0xa5, 0x1b, 0xbe, 0x82, 0xff, 0xcf, 0xbd,
  0x04, 0x29, 0x0a, 0xbe, 0x8b, 0x57, 0x6c, 0xbd, 0x57, 0xdd, 0x08, 0x3e,
  0xa6, 0xf0, 0x9c, 0xbd, 0xfb, 0x52, 0x79, 0xbd, 0x1c, 0x2d, 0xa8, 0x3d,
  0xef, 0x6b, 0x11, 0xbe, 0xb2, 0x97, 0xc2, 0xbd, 0x2a, 0x14, 0xc8, 0xbd,
  0xcf, 0x49, 0x15, 0xbe, 0xaf, 0xd7, 0xfa, 0x3d, 0x71, 0x62, 0x54, 0x3d,
  0x05, 0xbc, 0x9c, 0x3d, 0x58, 0xdc, 0x26, 0x3d, 0x4e, 0xf1, 0x01, 0x3e,
  0x48, 0xc5, 0xd1, 0x3d, 0x20, 0xa5, 0x1d, 0x3d, 0x18, 0x98, 0xc1, 0x3d,
  0xe2, 0x3b, 0x26, 0xbe, 0x6d, 0xb7, 0xca, 0xbd, 0x59, 0x03, 0xb1, 0x3d,
  0x61, 0xa9, 0xa5, 0xbd, 0x5e, 0xc8, 0xab, 0x3b, 0xca, 0x98, 0x43, 0xbd,
  0x85, 0xa5, 0xb9, 0x3c, 0x6d, 0x71, 0xd2, 0xbd, 0x19, 0xcd, 0x01, 0xbd,
  0xac, 0x92, 0x32, 0xbb, 0x90, 0xba, 0x65, 0x3d, 0xc8, 0x1a, 0x90, 0xbd,
  0x00, 0x81, 0xfd, 0x3d, 0x83, 0x4b, 0x95, 0xbd, 0x79, 0x3d, 0x82, 0xbd,
  0xff, 0x21, 0xcc, 0x3d, 0x3b, 0xb0, 0x98, 0xbd, 0x06, 0x31, 0x0d, 0x3d,
  0x72, 0xb3, 0x54, 0x3d, 0xd1, 0x93, 0x1c, 0xbd, 0xc6, 0x55, 0xdb, 0x3c,
  0x22, 0x62, 0x22, 0xbe, 0x33, 0xcb, 0xf6, 0x3d, 0xb1, 0x2c, 0xdd, 0xbd,
  0x4f, 0x45, 0x10, 0xbe, 0x9e, 0x3e, 0x08, 0xbd, 0x80, 0xec, 0x17, 0x3d,
  0x9e, 0xa1, 0x21, 0xbd, 0x0c, 0x8d, 0xd6, 0x3d, 0x34, 0x88, 0x99, 0x3d,
  0xa3, 0x27, 0xeb, 0xbd, 0x62, 0x6a, 0x13, 0x3d, 0x41, 0x90, 0xb2, 0xbd,
  0x38, 0x85, 0x2c, 0xbd, 0xe3, 0xf2, 0xf5, 0xbd, 0x67, 0xb5, 0x04, 0x3e,
  0x0d, 0x7d, 0x1a, 0x3d, 0xdf, 0x5e, 0x11, 0x3d, 0xba, 0x7e, 0xbf, 0xbd,
  0x9c, 0x9c, 0xfb, 0x3d, 0x51, 0x3a, 0xe2, 0xbb, 0xb5, 0x9d, 0x8c, 0xbd,
  0x9d, 0xb7, 0xd6, 0xbc, 0x82, 0x29, 0xed, 0xbd, 0xcd, 0xe0, 0x50, 0x3d,
  0x5b, 0x37, 0x13, 0xbe, 0x4a, 0xb6, 0xa7, 0x3d, 0x3e, 0xd0, 0x2c, 0xbd,
  0xe2, 0x25, 0xd7, 0x3d, 0x4e, 0x47, 0xa4, 0x3d, 0x05, 0xc1, 0x2c, 0xbd,
  0x95, 0x9c, 0x1e, 0xbe, 0x05, 0x75, 0x0d, 0xbe, 0xd0, 0x91, 0x16, 0x3e,
  0x04, 0xba, 0xc0, 0xbd, 0x8b, 0x16, 0xfa, 0x3d, 0xe3, 0x5c, 0x03, 0xbe,
  0xb2, 0xc6, 0x98, 0xba, 0x1f, 0xbf, 0xe3, 0x3d, 0x60, 0xc4, 0xc5, 0x3d,
  0x2d, 0x2e, 0x90, 0xbd, 0x11, 0x7e, 0x3b, 0x3c, 0x02, 0x10, 0x24, 0xbe,
  0x94, 0x4e, 0x3a, 0x3d, 0xed, 0xf6, 0x45, 0x3d, 0xec, 0x8c, 0xb5, 0x3d,
  0x2a, 0xad, 0xf2, 0x3d, 0x31, 0x97, 0xa4, 0xbd, 0x9a, 0x36, 0xfd, 0x3d,
  0xbd, 0xcb, 0x87, 0x3d, 0xd1, 0xa4, 0x4d, 0xbd, 0x0e, 0x78, 0x99, 0xbd,
  0xc3, 0xa7, 0x8c, 0xbd, 0x1f, 0xa9, 0xf4, 0xbd, 0xaa, 0x66, 0x17, 0xbd,
  0x20, 0x14, 0xc9, 0xbd, 0x96, 0x44, 0x0c, 0x3e, 0xe2, 0xfe, 0x87, 0x3a,
  0xbe, 0x7a, 0x85, 0x3d, 0x21, 0xd1, 0xd6, 0x3d, 0x2b, 0xfe, 0x91, 0x3d,
  0xbe, 0x15, 0x29, 0xbe, 0xf3, 0x63, 0x8d, 0x3d, 0x81, 0xe5, 0x0b, 0x3e,
  0xa1, 0x37, 0xf2, 0x3d, 0xe9, 0x5d, 0x7b, 0xbd, 0xe9, 0x31, 0x64, 0xbd,
  0x86, 0x86, 0x0a, 0x3d, 0x5f, 0x47, 0x0e, 0xbe, 0xe8, 0xcb, 0xf7, 0x3d,
  0x6b, 0x23, 0x52, 0xbd, 0x8d, 0xf8, 0x01, 0xbe, 0xae, 0x73, 0x29, 0x3c,
  0x19, 0x35, 0x56, 0x3c, 0x63, 0x87, 0x3c, 0x3d, 0xf1, 0xf2, 0x89, 0xbd,
  0xf6, 0xd8, 0x1f, 0x3d, 0xaf, 0x1a, 0x2c, 0xbe, 0x28, 0x6a, 0x00, 0xbe,
  0x26, 0x94, 0x28, 0xbd, 0xa6, 0x49, 0x3e, 0x3c, 0xd0, 0x5d, 0x18, 0xbd,
  0x43, 0x64, 0x03, 0xbe, 0xbb, 0x41, 0x24, 0xbe, 0x9f, 0xc1, 0x13, 0xbd,
  0xdb, 0x85, 0xa2, 0x3c, 0xfc, 0x38, 0xbe, 0x3d, 0x32, 0x55, 0x0a, 0xbe,
  0x8d, 0xc7, 0xa8, 0xbd, 0xaf, 0x31, 0x91, 0xbd, 0x77, 0x1f, 0x13, 0xbe,
  0xdb, 0x4d, 0xdd, 0xbd, 0x70, 0xda, 0x10, 0xbe, 0xa2, 0xd7, 0xaf, 0x3d,
  0xb2, 0x08, 0xc9, 0x3d, 0xf5, 0x83, 0x0a, 0xbd, 0x5b, 0x57, 0x8a, 0x3d,
  0x34, 0xb0, 0xf7, 0xbd, 0x04, 0xc2, 0xd9, 0x3d, 0xbb, 0x5d, 0xad, 0xbd,
  0x6f, 0x95, 0x75, 0x3d, 0x80, 0x07, 0x61, 0x3d, 0x3e, 0x47, 0x04, 0x3e,
  0x08, 0x65, 0x12, 0xbe, 0x07, 0xbe, 0x66, 0xbc, 0xc6, 0x15, 0x5d, 0x3d,
  0xb5, 0x90, 0x5c, 0xbd, 0xad, 0xcf, 0x17, 0x3e, 0x4f, 0xf3, 0x38, 0xbe,
  0x92, 0xc9, 0x27, 0xbe, 0x1c, 0x42, 0x32, 0xbe, 0x0a, 0x73, 0xed, 0xbd,
  0x7b, 0xde, 0xdf, 0x3c, 0x34, 0xa7, 0xc4, 0xbd, 0x74, 0x9f, 0x09, 0xbe,
  0x1c, 0x4b, 0x18, 0x3e, 0x93, 0x88, 0x2b, 0xbe, 0xe4, 0x5f, 0x62, 0x3d,
  0xbb, 0x5c, 0x8a, 0x3d, 0x77, 0x65, 0xea, 0xbb, 0x39, 0x33, 0x96, 0x3d,
  0xf3, 0x62, 0x8c, 0x3d, 0x6b, 0x4d, 0x88, 0x3d, 0xad, 0xb9, 0x9c, 0xbc,
  0x74, 0x9a, 0x1c, 0xbe, 0xb8, 0x70, 0xa1, 0xbd, 0x8a, 0x3d, 0xe7, 0xbb,
  0x5e, 0xd8, 0xe6, 0x3d, 0xcc, 0xa0, 0x30, 0xbe, 0x67, 0xb1, 0x07, 0xbe,
  0xc2, 0x01, 0xc4, 0xbd, 0x13, 0x15, 0x1a, 0x3d, 0x5e, 0x87, 0x67, 0xbd,
  0xc0, 0xf6, 0xdb, 0xbd, 0xc7, 0x7b, 0x20, 0xbe, 0xd8, 0x63, 0xee, 0xbd,
  0x2f, 0x24, 0xbd, 0xbc, 0x36, 0x39, 0x14, 0x3e, 0x92, 0x59, 0x34, 0x3d,
  0xeb, 0x93, 0xc4, 0x3d, 0xab, 0x53, 0x12, 0x3e, 0x07, 0x04, 0xc0, 0x3c,
  0x1e, 0xfc, 0xb0, 0xbd, 0x7c, 0xcf, 0xa9, 0x3b, 0x24, 0x34, 0xd3, 0xbc,
  0x70, 0x15, 0x1c, 0xbe, 0x59, 0x3c, 0x95, 0x3c, 0xe6, 0x08, 0xfb, 0x3d,
  0x50, 0x65, 0xe5, 0x3d, 0x53, 0x1c, 0xd7, 0xbd, 0xfc, 0xc6, 0x01, 0xbd,
  0x20, 0x32, 0xca, 0xbc, 0x17, 0x8d, 0xf8, 0x3b, 0xe6, 0x5e, 0xcc, 0xbd,
  0xee, 0x33, 0x5b, 0xbc, 0x58, 0x43, 0xba, 0xbd, 0x96, 0xf5, 0x8e, 0x3c,
  0xb1, 0xb5, 0xed, 0x3c, 0x49, 0x96, 0xe0, 0x3c, 0xe3, 0x0d, 0xa6, 0x3c,
  0x50, 0x85, 0x31, 0x3d, 0x55, 0x6f, 0xd0, 0xbd, 0xfa, 0x1d, 0x87, 0x3d,
  0x21, 0x1d, 0x48, 0xbd, 0x74, 0x96, 0xe1, 0x3d, 0xea, 0x5e, 0x8b, 0xbd,
  0x27, 0xc4, 0xff, 0x3d, 0x3c, 0x15, 0xc7, 0xbd, 0xba, 0x4a, 0xc2, 0x3d,
  0x98, 0x5f, 0x3c, 0xbc, 0xb5, 0x8a, 0x8e, 0xbd, 0xc7, 0x6d, 0x25, 0xbe,
  0xde, 0xa1, 0xf2, 0x3d, 0x09, 0xdc, 0x78, 0xbd, 0xf9, 0x50, 0xfc, 0x3d,
  0x94, 0xe3, 0x1b, 0xbe, 0x33, 0x0a, 0xa0, 0xbc, 0x5c, 0xd3, 0xb6, 0x3d,
  0x46, 0x31, 0xce, 0x3d, 0xe5, 0x79, 0xc0, 0xbd, 0x19, 0xca, 0xdc, 0xbd,
  0xb2, 0x71, 0x93, 0x3d, 0x94, 0x1d, 0xee, 0xbc, 0x57, 0x35, 0xac, 0x3d,
  0xbf, 0xa5, 0x24, 0xbe, 0xd6, 0x87, 0x0c, 0x3e, 0xfe, 0x3d, 0xa5, 0x3d,
  0x01, 0x6c, 0x6e, 0xbc, 0x31, 0xad, 0xd3, 0x3d, 0xae, 0x2a, 0x95, 0x3c,
  0xb2, 0x1a, 0x4f, 0x3b, 0x18, 0x77, 0xc3, 0x3d, 0x07, 0xd6, 0xf7, 0xbc,
  0xf8, 0xd0, 0xdb, 0x3c, 0xea, 0xeb, 0x0f, 0xbe, 0x90, 0xa8, 0xbb, 0x3d,
  0xfa, 0x4b, 0xd5, 0xbd, 0x18, 0x8b, 0x3a, 0xbd, 0x42, 0xed, 0xda, 0xbd,
  0x9b, 0xac, 0x19, 0xbe, 0x21, 0x2f, 0xfb, 0x3d, 0x50, 0x6c, 0xe7, 0x3d,
  0x64, 0xd4, 0x05, 0xbe, 0x52, 0x58, 0xad, 0x3d, 0x69, 0x37, 0xa7, 0x3d,
  0x6b, 0x1d, 0x21, 0xbe, 0x5e, 0xdb, 0x1a, 0xbe, 0x84, 0x4d, 0x7b, 0x3d,
  0xce, 0x8f, 0xe7, 0x3c, 0x46, 0x49, 0xed, 0xbd, 0x6a, 0x98, 0x15, 0x3d,
  0x11, 0x1c, 0x0e, 0x3e, 0xb8, 0x08, 0x94, 0x3b, 0xb4, 0x41, 0x0e, 0x3e,
  0x38, 0x4c, 0x28, 0xbe, 0x6c, 0x34, 0xa7, 0xbd, 0x44, 0xcb, 0xa1, 0x3d,
  0x0c, 0x09, 0xeb, 0xbd, 0xfa, 0x7a, 0x96, 0x3b, 0xd5, 0x72, 0x93, 0xbd,
  0x4b, 0xf1, 0x8f, 0xbd, 0x52, 0x62, 0xa2, 0xbb, 0x6d, 0xeb, 0x3e, 0x3d,
  0xce, 0xd1, 0xe8, 0x3d, 0x5e, 0x16, 0x34, 0xbd, 0x8a, 0x57, 0x0e, 0xbc,
  0x7b, 0x52, 0x91, 0x3d, 0xd5, 0xcd, 0x17, 0xbe, 0xd5, 0x00, 0xcb, 0xbd,
  0x5f, 0x62, 0x19, 0x3e, 0x53, 0xc2, 0x9a, 0xbd, 0xa3, 0x5d, 0x24, 0x3d,
  0xce, 0x92, 0x66, 0xbd, 0xc9, 0x9c, 0xa9, 0x3d, 0xcc, 0x22, 0xc4, 0xbd,
  0xb7, 0x1f, 0x69, 0x3c, 0xe7, 0xdf, 0x91, 0x3d, 0x0d, 0xd0, 0x90, 0x3c,
  0xe5, 0x93, 0xaa, 0x3d, 0x7d, 0x60, 0x0d, 0xbe, 0x46, 0x6b, 0x04, 0xbe,
  0x16, 0xf8, 0xb3, 0xbd, 0x6b, 0xe9, 0x3e, 0xbc, 0x2d, 0xe5, 0x0b, 0xbe,
  0x20, 0x04, 0xaf, 0x3d, 0xc7, 0xfc, 0x2e, 0xbe, 0x4d, 0xba, 0x17, 0x3d,
  0x9e, 0x33, 0xbb, 0xbd, 0xd4, 0x34, 0xb4, 0xbc, 0x0a, 0x22, 0xee, 0xbd,
  0xda, 0x37, 0xce, 0x3d, 0x12, 0xa8, 0xab, 0x3d, 0x4a, 0xf9, 0x34, 0xbd,
  0x53, 0x02, 0x01, 0x3e, 0xb6, 0x3b, 0x0f, 0x3e, 0xb6, 0xf0, 0x27, 0xbd,
  0x1a, 0xbd, 0x0a, 0xbd, 0xcd, 0xcc, 0x71, 0x3d, 0x8e, 0x98, 0x3b, 0x3d,
  0x30, 0x90, 0x1b, 0xbe, 0x6d, 0xb6, 0x01, 0x3c, 0x78, 0xb9, 0x39, 0xbe,
  0x39, 0xd1, 0x71, 0xbd, 0x79, 0x90, 0x59, 0x3d, 0x5b, 0x9a, 0x02, 0x3e,
  0xb5, 0x87, 0xcb, 0x3d, 0xc8, 0x08, 0x00, 0x3e, 0x00, 0x1d, 0xc2, 0xbd,
  0x5a, 0x99, 0xea, 0xbd, 0xc8, 0xcb, 0xee, 0x3d, 0xb5, 0xc9, 0x13, 0x3d,
  0x75, 0xac, 0xda, 0xbd, 0x7e, 0xc4, 0x6f, 0xbd, 0xac, 0xdd, 0x19, 0xbe,
  0x9a, 0x96, 0xa1, 0xbd, 0xab, 0xc7, 0xbe, 0xbd, 0xa1, 0xd8, 0xfd, 0x3d,
  0x6a, 0x97, 0x30, 0xbe, 0x16, 0xcf, 0xdc, 0x3d, 0xff, 0x51, 0xce, 0xbd,
  0xaa, 0xdf, 0x13, 0x3e, 0xb3, 0xea, 0x96, 0xbd, 0xae, 0x44, 0xe9, 0x3d,
  0xd3, 0xcf, 0x3a, 0xbd, 0xb8, 0x34, 0x4d, 0xbd, 0x41, 0xbf, 0x30, 0xbe,
  0x05, 0x58, 0xfc, 0x3d, 0xd3, 0xdc, 0xec, 0xbd, 0xfd, 0xcc, 0x4b, 0x3d,
  0xe1, 0x0f, 0xc6, 0x3c, 0x0f, 0xdb, 0xef, 0xbd, 0xbc, 0xde, 0xc0, 0xbc,
  0x06, 0xfb, 0x1c, 0x3d, 0xb7, 0xfd, 0x37, 0xbe, 0x5a, 0x10, 0xfe, 0x3d,
  0x13, 0xaf, 0x08, 0xbe, 0xbc, 0x9e, 0x78, 0xbd, 0x67, 0xb2, 0x28, 0xbe,
  0xf3, 0xc8, 0x7b, 0xbd, 0x9f, 0xda, 0x18, 0x3e, 0x00, 0x56, 0xa8, 0x3c,
  0x38, 0x96, 0x1d, 0xbc, 0x5b, 0xfb, 0x14, 0x3e, 0xa0, 0x6d, 0x0f, 0xbd,
  0xc4, 0x4d, 0x02, 0xbd, 0x3b, 0x0d, 0x12, 0x3e, 0x4f, 0xcb, 0xac, 0xbd,
  0x50, 0x01, 0xa7, 0x3d, 0x16, 0x75, 0x8e, 0xbd, 0x35, 0x21, 0x1f, 0xbe,
  0x0a, 0xc9, 0xb5, 0xbd, 0x88, 0x06, 0xbc, 0x3d, 0x34, 0x02, 0x0b, 0xbe,
  0x20, 0x96, 0x21, 0xbe, 0x47, 0x2c, 0x9d, 0xbd, 0x4b, 0x99, 0xeb, 0x3d,
  0xda, 0x3e, 0x1e, 0xbe, 0x4d, 0x6e, 0x64, 0x3c, 0x8c, 0x66, 0xb0, 0x3d,
  0x10, 0xe3, 0x3d, 0x3c, 0xd4, 0x18, 0x30, 0xbe, 0x60, 0x1f, 0x84, 0xbd,
  0xca, 0x39, 0x01, 0x3e, 0x4e, 0x0a, 0x11, 0x3e, 0xde, 0xaf, 0xae, 0xbd,
  0x1c, 0x86, 0xfa, 0x3d, 0xbe, 0xaf, 0xc9, 0x3d, 0xb5, 0xeb, 0xec, 0x3d,
  0xb6, 0x90, 0xb2, 0xbb, 0xca, 0xe3, 0x21, 0xbe, 0x14, 0x08, 0x0d, 0x3d,
  0xab, 0x61, 0x0f, 0xbe, 0xdc, 0x74, 0x6c, 0x3d, 0xd9, 0xad, 0x0b, 0x3d,
  0xc1, 0x58, 0x94, 0xbc, 0x3e, 0xef, 0x0d, 0x3e, 0x71, 0x43, 0xcb, 0x3d,
  0x5e, 0x73, 0x7a, 0x3c, 0xf4, 0xcf, 0x9c, 0x3d, 0xa8, 0x89, 0x09, 0xbd,
  0x2a, 0x62, 0x20, 0x3e, 0x62, 0xd8, 0x7a, 0x3d, 0x98, 0x82, 0xcc, 0xb9,
  0xb6, 0x7c, 0x1f, 0xbe, 0x6a, 0x4d, 0xd4, 0x3d, 0xc0, 0x16, 0x02, 0x3d,
  0xa7, 0xea, 0x71, 0xbd, 0x83, 0x33, 0xb6, 0x3d, 0xcf, 0xca, 0xf1, 0x3d,
  0x73, 0xaf, 0xcd, 0x3c, 0x6d, 0xb2, 0xb8, 0xbd, 0xf1, 0x3a, 0xbb, 0x3d,
  0x4d, 0x60, 0x28, 0xbe, 0x00, 0x9d, 0x2b, 0xbd, 0xe7, 0x3d, 0x8d, 0x3d,
  0xc4, 0x1d, 0x25, 0xbd, 0x2e, 0x93, 0x3a, 0x3d, 0xd6, 0x71, 0x79, 0xbc,
  0x28, 0xd3, 0x66, 0xbc, 0x36, 0x2a, 0x5d, 0x3d, 0xdc, 0x38, 0x20, 0xbe,
  0x47, 0xa7, 0x0b, 0xbe, 0x80, 0x5c, 0x48, 0x3c, 0xe4, 0x6c, 0x88, 0xbd,
  0xbf, 0x6d, 0x07, 0xbe, 0xc6, 0x43, 0x38, 0xbc, 0x37, 0xdb, 0x04, 0xbe,
  0xfa, 0xdf, 0xca, 0xbd, 0x29, 0xf0, 0x13, 0xbd, 0x04, 0x2d, 0x1e, 0xbe,
  0x3e, 0x10, 0xfa, 0x3d, 0x83, 0x72, 0xa7, 0xbd, 0x1d, 0xdc, 0x12, 0xbe,
  0x62, 0x87, 0x1a, 0x3e, 0xb0, 0xa5, 0xe4, 0xbd, 0x29, 0x8b, 0x1f, 0x3d,
  0xe7, 0x08, 0x78, 0x3d, 0xfc, 0x42, 0xe3, 0xbd, 0x30, 0xf2, 0x58, 0x3d,
  0x4b, 0xfb, 0xb1, 0x3c, 0xbb, 0x5e, 0x25, 0xbe, 0x29, 0x8c, 0x07, 0xbe,
  0x02, 0x8c, 0xbe, 0xbc, 0x05, 0x41, 0x1d, 0xbe, 0x70, 0x0f, 0xa8, 0xbc,
  0xd4, 0x4a, 0x1a, 0x3c, 0x1d, 0xa4, 0x6a, 0x3d, 0x26, 0xa0, 0xbf, 0x3c,
  0x83, 0x1e, 0xec, 0xbd, 0x7f, 0xae, 0x32, 0xbe, 0x75, 0xf8, 0xe7, 0xbd,
  0x75, 0xd2, 0x01, 0x3e, 0x64, 0xda, 0x14, 0x3e, 0x7a, 0xe6, 0x98, 0x3c,
  0x52, 0x2c, 0x06, 0xbe, 0x6e, 0xa8, 0x17, 0x3d, 0xc9, 0xce, 0x3f, 0xbd,
  0xd6, 0xcd, 0xed, 0x3d, 0x32, 0xed, 0x26, 0xbe, 0xd9, 0xbd, 0x07, 0xbe,
  0xdf, 0xa8, 0xd2, 0x3d, 0x2b, 0xf7, 0xdb, 0xbd, 0x59, 0x2e, 0x33, 0xbe,
  0xef, 0x30, 0x09, 0xbd, 0xf6, 0x72, 0x21, 0xbd, 0xb6, 0x18, 0xb1, 0xbc,
  0x38, 0x29, 0x3f, 0x3b, 0xb9, 0x98, 0x76, 0xbd, 0x4d, 0x36, 0x06, 0xbe,
  0x47, 0x54, 0x1a, 0x3e, 0xbf, 0x58, 0x24, 0xbe, 0x9f, 0x83, 0x79, 0x3d,
  0x58, 0x59, 0x21, 0x3a, 0xd8, 0xd1, 0x93, 0xbd, 0xae, 0xf8, 0x04, 0x3e,
  0xf9, 0xdb, 0xe1, 0xbc, 0xf2, 0x26, 0xbf, 0xbc, 0x64, 0x6b, 0xac, 0x3d,
  0x11, 0x79, 0x3d, 0xbe, 0x5b, 0x9d, 0xfd, 0xbd, 0x6d, 0x89, 0xea, 0x3d,
  0x5c, 0x13, 0x3d, 0x3d, 0xe1, 0x42, 0x55, 0x3d, 0xae, 0x58, 0x43, 0xbe,
  0xc7, 0x7e, 0x07, 0xbe, 0x66, 0xab, 0x5c, 0xbc, 0x43, 0xf6, 0x05, 0x3b,
  0xb3, 0xe7, 0xef, 0xbd, 0x4c, 0x91, 0xcf, 0xbd, 0x89, 0x6f, 0x03, 0x3e,
  0xd8, 0x21, 0xf5, 0x3d, 0x0f, 0xf8, 0x21, 0xbe, 0x66, 0x0a, 0x98, 0xbd,
  0x6c, 0xde, 0x25, 0x3c, 0xa7, 0xda, 0x0d, 0x3e, 0xc3, 0xd0, 0xde, 0x3d,
  0x36, 0xce, 0xa0, 0x3d, 0xe1, 0xa2, 0x2c, 0xbd, 0xfa, 0x80, 0xb3, 0x3d,
  0xb3, 0x86, 0x1b, 0xbe, 0xc9, 0xb0, 0x9a, 0xbd, 0xc8, 0x31, 0x0a, 0x3e,
  0xbd, 0x6f, 0x64, 0xbd, 0xa6, 0x3f, 0xc4, 0x3d, 0x6d, 0x9a, 0x09, 0xbe,
  0xfc, 0x31, 0x17, 0x3e, 0x2e, 0x92, 0x27, 0xbe, 0x1d, 0xb0, 0x29, 0xbe,
  0xba, 0x73, 0xf2, 0x3b, 0x77, 0x31, 0xe0, 0x3d, 0xa4, 0xae, 0x30, 0xbe,
  0x68, 0xf6, 0x0c, 0xbd, 0x58, 0xc0, 0xd9, 0xbd, 0x3d, 0xdc, 0x8a, 0x3d,
  0xcd, 0x78, 0x91, 0xbd, 0x64, 0x49, 0x01, 0xbe, 0x08, 0xa9, 0xdc, 0x3c,
  0x31, 0x5b, 0x0e, 0xbe, 0xb3, 0xd4, 0x9f, 0x3c, 0x74, 0x56, 0xd6, 0x3d,
  0xd1, 0x4d, 0xe9, 0xbd, 0x79, 0x5f, 0x74, 0x3d, 0x1f, 0x24, 0xed, 0xbd,
  0x20, 0x0a, 0xb1, 0xbc, 0x30, 0xa9, 0xa7, 0x3d, 0x86, 0x58, 0x0a, 0xbc,
  0x2b, 0x9a, 0x6c, 0xbc, 0x35, 0x4b, 0x22, 0xbe, 0x0f, 0x4e, 0xeb, 0x3d,
  0xdb, 0xfa, 0xea, 0x3d, 0xba, 0xc3, 0x11, 0x3e, 0xfb, 0xe0, 0xcf, 0x3d,
  0x64, 0x22, 0xe0, 0x3c, 0xe3, 0x62, 0xa5, 0xbd, 0x29, 0xff, 0xb4, 0x3c,
  0xd6, 0x71, 0x93, 0x3d, 0x53, 0xfd, 0xfa, 0xbd, 0x7b, 0x90, 0x05, 0xbd,
  0xda, 0xa4, 0x05, 0xbe, 0x4d, 0xa0, 0x0f, 0x3e, 0xc4, 0x11, 0x9c, 0xbd,
  0xf7, 0x2e, 0x87, 0xbd, 0xbd, 0xa4, 0x5d, 0x3d, 0x1c, 0x9a, 0xe4, 0xbc,
  0xf1, 0x64, 0x05, 0x3e, 0x1d, 0x96, 0x14, 0xbe, 0xa8, 0xbd, 0xc4, 0xbd,
  0xff, 0x83, 0x03, 0xbe, 0x68, 0x49, 0xf1, 0xbd, 0x58, 0x50, 0x07, 0x3a,
  0x56, 0xdd, 0x87, 0x3d, 0x04, 0x40, 0x5a, 0x3d, 0xf9, 0x87, 0x43, 0x3d,
  0x46, 0x38, 0xe3, 0x3b, 0xa6, 0xa2, 0x04, 0xbe, 0xf7, 0x3a, 0x6b, 0x3b,
  0x56, 0xf7, 0xe9, 0xbd, 0x95, 0x85, 0x20, 0xbe, 0x1a, 0x49, 0x1e, 0xbe,
  0xc3, 0x54, 0x0b, 0xbe, 0xb1, 0xab, 0xaf, 0xbd, 0xb2, 0xd7, 0x08, 0x3e,
  0xb4, 0xa2, 0x0d, 0xbe, 0x8d, 0x50, 0xb8, 0x3d, 0x90, 0x8f, 0xb4, 0xbd,
  0xbf, 0x5b, 0x0f, 0x3d, 0x33, 0xd1, 0x1e, 0xbe, 0xf0, 0xaf, 0x93, 0x3d,
  0x73, 0xc5, 0x17, 0x3e, 0xaa, 0xa9, 0x32, 0x3d, 0x5a, 0x3b, 0xcc, 0xbd,
  0x53, 0xb8, 0xe0, 0x3c, 0xa1, 0x05, 0xd7, 0xbd, 0xe2, 0x49, 0x39, 0xbe,
  0x94, 0xe1, 0x37, 0xbe, 0x13, 0xe7, 0x0f, 0x3d, 0x49, 0x3c, 0xbb, 0xbd,
  0x1e, 0xf2, 0x32, 0xbd, 0xcb, 0x2c, 0xb6, 0xbd, 0x69, 0x99, 0xf9, 0x3d,
  0x4f, 0x1c, 0xd5, 0x3c, 0x3c, 0xdb, 0xe1, 0xbd, 0xe7, 0x3a, 0xf2, 0x3d,
  0xb5, 0x5d, 0xc7, 0xbd, 0xc8, 0x1b, 0xd1, 0x3c, 0xce, 0x91, 0x64, 0xbd,
  0x90, 0x19, 0x3e, 0x3d, 0x04, 0x61, 0xf7, 0x3d, 0x5c, 0x2a, 0xa7, 0x3d,
  0x12, 0xf4, 0x21, 0xbe, 0xc1, 0xba, 0x15, 0x3e, 0xdf, 0x2b, 0xc5, 0xbd,
  0x1b, 0x8b, 0x9c, 0xbd, 0x20, 0xc2, 0xd2, 0x3c, 0x6f, 0x27, 0x09, 0xbd,
  0xba, 0xd3, 0x8c, 0x3d, 0x37, 0x81, 0x57, 0x3d, 0x05, 0x9f, 0x5c, 0x3d,
  0x31, 0x11, 0x14, 0x3e, 0x1f, 0x88, 0x97, 0xbd, 0xaa, 0xc0, 0xb8, 0x3d,
  0x0c, 0x12, 0x08, 0xbe, 0x56, 0xad, 0x8a, 0xbd, 0x3c, 0x0c, 0x29, 0xbe,
  0x09, 0xcd, 0xaf, 0x3d, 0xdb, 0xfb, 0x2a, 0xbe, 0x75, 0xe2, 0xd4, 0x3d,
  0xbd, 0x02, 0x21, 0xbe, 0x42, 0xd3, 0x60, 0x3d, 0xca, 0x98, 0x8b, 0xbd,
  0xd4, 0x65, 0xd9, 0xbb, 0xa4, 0xd2, 0x74, 0xbd, 0x44, 0x80, 0xa3, 0x3d,
  0x12, 0x40, 0x7c, 0x3d, 0xae, 0x10, 0x7a, 0x3d, 0x06, 0xd0, 0xf8, 0xbd,
  0x24, 0xa5, 0x03, 0x3b, 0x7c, 0xee, 0xd0, 0x3d, 0x3f, 0x5c, 0xb0, 0xbd,
  0x6a, 0xcd, 0xf5, 0x3d, 0x03, 0x9b, 0xd2, 0x3d, 0x70, 0xa0, 0x18, 0xbe,
  0xcf, 0xad, 0x12, 0x3e, 0xa7, 0x3b, 0xad, 0x3d, 0xbf, 0x80, 0x89, 0x3c,
  0xef, 0xd2, 0xff, 0x3c, 0x79, 0x2a, 0x24, 0xbe, 0x27, 0x34, 0xd5, 0xbc,
  0x9c, 0x8c, 0xb6, 0xbd, 0x20, 0x46, 0xf3, 0xbd, 0x10, 0x67, 0xa8, 0x3d,
  0xb6, 0x2b, 0x10, 0x3e, 0x22, 0x4a, 0x3b, 0xbd, 0x39, 0xe4, 0x83, 0x3d,
  0x94, 0x1a, 0x37, 0xbd, 0x12, 0xdd, 0x63, 0xbd, 0x99, 0x3e, 0xa7, 0xbd,
  0xc3, 0x42, 0xfb, 0x3d, 0xaf, 0x4a, 0xeb, 0x3d, 0x6e, 0x1d, 0x93, 0x3d,
  0x44, 0x5b, 0x17, 0xbe, 0x1a, 0x1b, 0x9b, 0x3d, 0xd2, 0xaa, 0xbf, 0x3d,
  0xc2, 0x74, 0xca, 0x3d, 0x3d, 0x8e, 0xb3, 0xbd, 0x14, 0x88, 0x63, 0xbd,
  0xad, 0x0c, 0x89, 0xbd, 0x2c, 0x8f, 0x59, 0x3c, 0x24, 0x04, 0xda, 0x3d,
  0x5d, 0x02, 0x95, 0x3d, 0xe0, 0x15, 0x02, 0x3e, 0xdb, 0x2b, 0x26, 0xbe,
  0xb0, 0xd4, 0xa4, 0x3d, 0x3f, 0x16, 0xbb, 0xbd, 0xce, 0xd8, 0x11, 0x3e,
  0x82, 0x58, 0x5a, 0x3d, 0xbb, 0x95, 0x2b, 0xbc, 0xe5, 0xca, 0x2f, 0xbd,
  0xb9, 0x89, 0xde, 0xbd, 0x80, 0x3f, 0x77, 0x3d, 0x20, 0x3b, 0x0b, 0x3e,
  0x68, 0x2c, 0x2c, 0xbe, 0x7e, 0x55, 0x30, 0xbe, 0x6e, 0x5f, 0xfe, 0x3d,
  0x39, 0x12, 0x36, 0x3d, 0xcc, 0x99, 0x01, 0x3e, 0x12, 0xbb, 0x8e, 0x3c,
  0x4c, 0x00, 0x35, 0xbd, 0xef, 0x9d, 0xa1, 0xbd, 0x8d, 0x60, 0x16, 0x3e,
  0x23, 0x08, 0x04, 0xbd, 0x1b, 0x54, 0x31, 0xbe, 0x66, 0x6e, 0x22, 0x3d,
  0xdf, 0x6e, 0x06, 0xbe, 0xde, 0x14, 0x55, 0xbd, 0x95, 0x7b, 0x1e, 0xbd,
  0x12, 0x43, 0xbd, 0xbd, 0xd4, 0xc2, 0xe2, 0xbd, 0x57, 0xdb, 0x29, 0xbe,
  0xf9, 0xf1, 0x30, 0xbe, 0x7e, 0xee, 0xc5, 0xbd, 0xba, 0xe4, 0x8d, 0xbd,
  0x1a, 0x50, 0x92, 0xbd, 0x2b, 0x07, 0x30, 0xbe, 0x19, 0x3f, 0xdf, 0xbd,
  0xb2, 0xeb, 0xcf, 0xbd, 0x6e, 0x48, 0x9e, 0xbd, 0x4a, 0xa3, 0x6e, 0xbd,
  0xc6, 0x92, 0x89, 0x3a, 0xab, 0xfd, 0x33, 0xbe, 0xb8, 0x5b, 0x99, 0x3d,
  0x6d, 0xfc, 0x16, 0x3e, 0xee, 0x2e, 0x0d, 0xbd, 0x53, 0x35, 0xef, 0x3d,
  0xa5, 0x1c, 0x14, 0xbe, 0xe5, 0x64, 0x73, 0xbc, 0xf9, 0x6a, 0x56, 0x3d,
  0x64, 0xd6, 0x6c, 0xbc, 0x2c, 0xd9, 0x05, 0xbe, 0xb7, 0xe3, 0xaa, 0x3d,
  0x6f, 0xb3, 0x9c, 0x3d, 0x06, 0x23, 0xe5, 0x3c, 0x27, 0x6b, 0x65, 0xbd,
  0xb8, 0x97, 0x8a, 0xbd, 0x8b, 0xe5, 0x6f, 0xbd, 0x58, 0x5d, 0x5f, 0xbd,
  0x54, 0x32, 0x9d, 0x3b, 0xfc, 0x0c, 0x5d, 0xbc, 0xff, 0x14, 0xbe, 0xbd,
  0xca, 0x58, 0x1f, 0xbe, 0x07, 0x31, 0x14, 0xbd, 0x46, 0x69, 0x18, 0xbe,
  0x83, 0xb3, 0x30, 0xbe, 0xa3, 0xee, 0x39, 0xbd, 0x60, 0xc5, 0xfa, 0x3d,
  0x50, 0x54, 0xc2, 0xbd, 0xc1, 0xee, 0x0f, 0xbe, 0x88, 0x01, 0x32, 0xbc,
  0x53, 0x16, 0x9f, 0x3d, 0xa6, 0x2f, 0x2a, 0xbe, 0xac, 0xb4, 0xfe, 0xbc,
  0xfb, 0x1f, 0xe2, 0x3c, 0x1d, 0xe0, 0xfa, 0xbd, 0x5c, 0xd8, 0x6c, 0x3d,
  0x61, 0xc8, 0x7e, 0x3d, 0x25, 0x7f, 0x3e, 0x3d, 0x81, 0xa4, 0x14, 0x3d,
  0xa0, 0x91, 0x24, 0xbe, 0xd1, 0x5d, 0x98, 0x3b, 0x61, 0xf9, 0x91, 0x3b,
  0x72, 0x79, 0x33, 0xbe, 0x1a, 0x6c, 0x04, 0x3e, 0x45, 0x93, 0x42, 0x3d,
  0xed, 0x2b, 0x03, 0x3e, 0x81, 0x17, 0x12, 0xbe, 0x15, 0x90, 0xe7, 0x3d,
  0x63, 0x08, 0xc5, 0xbc, 0x28, 0x6d, 0xd3, 0xbc, 0x0f, 0xa8, 0xbd, 0xbd,
  0xa8, 0x04, 0x06, 0xbe, 0x84, 0xa4, 0xb9, 0xbd, 0xff, 0x55, 0x03, 0x3e,
  0x8a, 0x13, 0xc9, 0x3c, 0xcd, 0xfe, 0x50, 0xbd, 0x8d, 0x12, 0xcc, 0xbd,
  0x00, 0x0d, 0x29, 0x3d, 0xf7, 0x1f, 0x04, 0xbe, 0x57, 0x49, 0xf1, 0x3d,
  0xa1, 0x47, 0xee, 0x3d, 0xf0, 0x5f, 0x9c, 0xbc, 0x33, 0xd2, 0x91, 0xbd,
  0xb1, 0x91, 0x15, 0x3e, 0x72, 0xe8, 0x40, 0xbd, 0x09, 0x17, 0x50, 0x3d,
  0xd7, 0x47, 0xf5, 0x3d, 0x45, 0xbd, 0x75, 0xbd, 0x83, 0xce, 0xac, 0x3d,
  0x61, 0x54, 0xeb, 0x3d, 0x7a, 0x01, 0xff, 0xbc, 0x3d, 0x61, 0xbb, 0x3d,
  0x5f, 0x44, 0xf2, 0x3c, 0x65, 0x4e, 0xd8, 0x3b, 0x1b, 0x40, 0x27, 0xbe,
  0x70, 0xf1, 0x68, 0xbb, 0xf4, 0x28, 0xfc, 0xbd, 0x9e, 0xf7, 0xbc, 0x3d,
  0xad, 0x4a, 0x43, 0xbd, 0xc5, 0x40, 0xe2, 0x3d, 0x9b, 0x21, 0xd0, 0xbd,
  0x81, 0xb6, 0x87, 0xbd, 0xfa, 0x2e, 0xae, 0xbd, 0x56, 0x7c, 0x9f, 0xbd,
  0x09, 0x74, 0xc3, 0x3d, 0xcc, 0x1c, 0x12, 0x3e, 0x82, 0x54, 0x64, 0xbd,
  0x39, 0xc2, 0x89, 0xbd, 0x01, 0x30, 0xdd, 0x3d, 0xe5, 0xff, 0x2c, 0xbe,
  0x98, 0x3e, 0xc3, 0x3c, 0xd5, 0x9e, 0x8b, 0x3d, 0xe2, 0x8f, 0xb5, 0x3c,
  0x2e, 0x35, 0xa0, 0xbd, 0x75, 0xeb, 0xd7, 0xbd, 0x0a, 0xd4, 0x80, 0xbd,
  0xb6, 0xfc, 0x16, 0xbe, 0x49, 0x6d, 0xb9, 0xbd, 0xa1, 0x4b, 0x1e, 0x3e,
  0xe2, 0x08, 0x90, 0xbd, 0x08, 0xad, 0x0c, 0x3d, 0x63, 0xea, 0x1e, 0xbe,
  0xfb, 0xfd, 0x05, 0xbe, 0xb0, 0xc8, 0xb4, 0x3d, 0xff, 0x58, 0xb4, 0x3d,
  0x43, 0x26, 0xe7, 0x3d, 0xbb, 0x3f, 0xb3, 0xbd, 0xde, 0x09, 0x56, 0x3c,
  0x2d, 0xdb, 0x12, 0x3e, 0xed, 0x01, 0x1b, 0x3e, 0x02, 0x06, 0x02, 0x3d,
  0x35, 0xc7, 0xfe, 0xbd, 0x4d, 0x80, 0xe5, 0x3d, 0xf8, 0x47, 0x8d, 0xbd,
  0x5d, 0x5a, 0xd6, 0x3c, 0x02, 0x7a, 0x35, 0x3d, 0x4a, 0x5f, 0x85, 0x3d,
  0xa2, 0x98, 0xb4, 0x3d, 0x0c, 0x12, 0x01, 0xbe, 0x23, 0x1b, 0x15, 0xbe,
  0x7f, 0xa4, 0x80, 0x3c, 0x07, 0x98, 0xda, 0x3d, 0x0b, 0x2d, 0xec, 0x3d,
  0xca, 0xe4, 0xd7, 0xbd, 0x7a, 0x64, 0x0e, 0xbe, 0x74, 0x26, 0x75, 0xbc,
  0xd2, 0xe1, 0xf5, 0x3c, 0xfe, 0x24, 0xf0, 0xbd, 0xf9, 0xe6, 0x1c, 0xbe,
  0x54, 0xa0, 0x20, 0xbe, 0x87, 0x8e, 0x2c, 0xbd, 0x48, 0x65, 0x80, 0xbd,
  0x1c, 0xc6, 0x09, 0xbe, 0x16, 0x36, 0x04, 0xbe, 0xff, 0x75, 0xce, 0x3d,
  0x13, 0x18, 0x46, 0xbd, 0xc7, 0xd6, 0xa9, 0xbc, 0x80, 0x6b, 0x10, 0xbe,
  0x57, 0x5e, 0x62, 0xbc, 0xbc, 0x5a, 0xba, 0xbd, 0xbd, 0x84, 0x68, 0x3c,
  0x88, 0x73, 0x7d, 0x3d, 0xc3, 0xd1, 0xd6, 0xbd, 0x1e, 0xbd, 0x93, 0xbd,
  0xb6, 0x87, 0x00, 0x3e, 0xa4, 0x0f, 0x03, 0x3e, 0x3f, 0x9d, 0xda, 0xbd,
  0x28, 0x0c, 0x18, 0x3d, 0x53, 0x7e, 0x19, 0xbe, 0x9b, 0x86, 0x51, 0xbd,
  0x3d, 0x95, 0xa7, 0xbd, 0x3c, 0x3e, 0xc4, 0xbd, 0x13, 0x7a, 0x17, 0xbe,
  0x22, 0x8d, 0xc5, 0x3b, 0x18, 0xf3, 0x9c, 0x3d, 0x45, 0x64, 0x32, 0xbe,
  0x3e, 0xc9, 0x8e, 0xbc, 0xa8, 0x80, 0xf2, 0x3d, 0xda, 0x8d, 0x0d, 0xbd,
  0xe1, 0xab, 0xc0, 0xbd, 0xbb, 0x8d, 0x05, 0xbe, 0xfd, 0x2a, 0x95, 0x3c,
  0x6c, 0xcc, 0x22, 0xbe, 0x22, 0xb5, 0x03, 0xbd, 0x8c, 0x64, 0x0f, 0xbe,
  0x54, 0x43, 0x99, 0x3d, 0xcf, 0x80, 0x0c, 0x3e, 0x96, 0x30, 0xcf, 0x3d,
  0x11, 0xb7, 0x12, 0xbe, 0xec, 0x8a, 0x56, 0x3c, 0xa8, 0x2c, 0x4b, 0xbd,
  0xf1, 0x4e, 0x03, 0xbe, 0xa0, 0x6d, 0x58, 0xbd, 0x13, 0x3a, 0xfb, 0x3d,
  0xfb, 0x7c, 0x80, 0xbd, 0x5b, 0xd9, 0xe3, 0x3d, 0x40, 0xae, 0x1c, 0xbe,
  0x46, 0xfe, 0xf7, 0x3d, 0xf3, 0x3d, 0xda, 0x3d, 0xe6, 0x5d, 0x24, 0xbd,
  0xf5, 0xa6, 0xe7, 0x3d, 0xb4, 0x54, 0x53, 0xbd, 0xdf, 0xb7, 0xa4, 0xbd,
  0x4b, 0x53, 0x19, 0x3e, 0x51, 0xd5, 0x0a, 0xbe, 0x43, 0x48, 0xc8, 0xbc,
  0x37, 0x08, 0x0a, 0xbd, 0x1a, 0xf3, 0xc6, 0x3c, 0x32, 0x36, 0x0a, 0xbd,
  0xb6, 0xb3, 0xd8, 0x3d, 0x3a, 0x00, 0xd2, 0x3c, 0x60, 0xb4, 0x92, 0x3c,
  0x8c, 0xe3, 0x9a, 0xbd, 0xf8, 0xdb, 0x27, 0xbe, 0x4f, 0xf8, 0x0a, 0x3e,
  0xb4, 0x55, 0xd3, 0x3d, 0xe0, 0x3a, 0x01, 0x3e, 0x9b, 0x24, 0xcb, 0x3d,
  0x46, 0x4f, 0x80, 0x3c, 0x06, 0xcf, 0x0d, 0x3b, 0xab, 0x87, 0x10, 0x3e,
  0xea, 0x20, 0x5d, 0xbd, 0x21, 0x2f, 0xb5, 0xbc, 0xfa, 0x6a, 0xa2, 0xbd,
  0xa8, 0xf0, 0x88, 0xbd, 0x13, 0x46, 0x39, 0xbd, 0x82, 0x01, 0xb5, 0xbd,
  0xe2, 0x17, 0xf5, 0xbd, 0xc8, 0xb7, 0xed, 0xbd, 0x82, 0x61, 0x26, 0xbe,
  0x46, 0xe7, 0x92, 0xbd, 0x73, 0xd1, 0x01, 0xbe, 0x16, 0xa5, 0x88, 0x3d,
  0x42, 0xe5, 0x73, 0xbd, 0xb3, 0xac, 0xba, 0x3d, 0x4f, 0xa5, 0x9a, 0x3d,
  0x28, 0xbd, 0x60, 0x3d, 0x36, 0xc8, 0xf1, 0x3d, 0x51, 0x1d, 0xa8, 0x3d,
  0x0e, 0xb5, 0x06, 0xbe, 0x64, 0xe0, 0x75, 0xbc, 0xf4, 0x3d, 0x65, 0xbd,
  0x73, 0xd5, 0x82, 0x3d, 0x15, 0x85, 0x83, 0x3d, 0xf7, 0xfe, 0x16, 0xbe,
  0xd8, 0x84, 0xba, 0x3c, 0x80, 0x9b, 0x10, 0x3d, 0x48, 0xa8, 0xa6, 0x3d,
  0x23, 0x0f, 0x2b, 0x3e, 0xb0, 0x6c, 0x9a, 0x3d, 0x77, 0x63, 0x17, 0x3e,
  0x6a, 0xc6, 0xb4, 0xbd, 0x07, 0x60, 0x15, 0x3e, 0x20, 0x30, 0xc3, 0xbd,
  0xaf, 0xf3, 0x1b, 0xbd, 0x8a, 0xab, 0x68, 0xbb, 0xb2, 0x15, 0xa3, 0xbd,
  0xf3, 0xdd, 0xd8, 0x3c, 0xaf, 0xbb, 0xb4, 0x3d, 0x64, 0xdd, 0x5b, 0xbd,
  0x8f, 0x83, 0xc8, 0x3d, 0x8a, 0x54, 0xde, 0xbc, 0x57, 0xe8, 0xdb, 0xbd,
  0x3b, 0xa1, 0xd2, 0x3c, 0xcf, 0x98, 0xbb, 0xbd, 0xc2, 0xed, 0x79, 0x3d,
  0xbb, 0xdd, 0xfd, 0x3d, 0x45, 0xf9, 0xc2, 0x3d, 0x18, 0x59, 0x44, 0x3d,
  0x74, 0x61, 0x37, 0xbd, 0x50, 0xd7, 0x70, 0xbd, 0x8c, 0x4b, 0xaf, 0xbc,
  0x16, 0x0c, 0xbc, 0xbd, 0x13, 0xc9, 0x8b, 0xbd, 0x36, 0xd4, 0xf2, 0xbc,
  0xe2, 0xaa, 0xc2, 0xbd, 0x4a, 0x3f, 0x65, 0x3c, 0x92, 0x9a, 0xcf, 0x3c,
  0xc6, 0x3c, 0xfe, 0xbd, 0xda, 0x7b, 0x63, 0x3d, 0xe2, 0xf4, 0x31, 0xbd,
  0xa3, 0x36, 0x98, 0xbd, 0x46, 0xae, 0x0c, 0x3e, 0xec, 0x98, 0x73, 0x3d,
  0xbe, 0x24, 0xd0, 0xbd, 0xbe, 0xb7, 0x10, 0x3e, 0xa6, 0xc8, 0xcb, 0xbd,
  0x1a, 0x39, 0xeb, 0x3c, 0x76, 0x87, 0x16, 0xbe, 0x67, 0x13, 0x1e, 0xbe,
  0x1b, 0x58, 0x6e, 0xbd, 0x32, 0x30, 0xf7, 0xbc, 0xca, 0x2f, 0x3c, 0x3d,
  0x57, 0x44, 0x11, 0x3d, 0xc3, 0x4d, 0xc8, 0xbd, 0x91, 0xa7, 0x16, 0xbe,
  0x48, 0xca, 0x75, 0xbd, 0xdf, 0xfb, 0xe0, 0x3c, 0x86, 0x5a, 0x52, 0x3b,
  0xd8, 0x71, 0xba, 0x3d, 0xc0, 0x29, 0x79, 0xbd, 0x4f, 0xfd, 0x25, 0xbe,
  0x99, 0x16, 0x90, 0x3d, 0x04, 0xb0, 0x84, 0x3c, 0xab, 0xd1, 0xc4, 0xbd,
  0x60, 0xbc, 0x65, 0x3d, 0xdf, 0x5f, 0x14, 0xbc, 0x46, 0xab, 0x1b, 0xbe,
  0x4a, 0xb3, 0x09, 0xbe, 0x92, 0x7f, 0x7b, 0x3d, 0x80, 0x5a, 0x48, 0x3d,
  0xb0, 0xd9, 0xfe, 0x3d, 0x10, 0xf6, 0xd6, 0x3c, 0xfb, 0xe2, 0xda, 0xbd,
  0x78, 0x55, 0x96, 0x3d, 0xa5, 0x5c, 0x35, 0xbe, 0x0a, 0x1b, 0xfe, 0x3d,
  0x8b, 0x37, 0xd5, 0xbb, 0x6b, 0xb6, 0xc2, 0x3c, 0xe8, 0xfb, 0x04, 0x3e,
  0xd6, 0x88, 0xb8, 0xbd, 0x7e, 0x00, 0xed, 0xbd, 0xf9, 0x9e, 0x18, 0x3d,
  0xf3, 0xf8, 0x6d, 0x3d, 0x32, 0xc5, 0x1f, 0xbd, 0xd1, 0x55, 0x97, 0xbd,
  0xf0, 0x67, 0x47, 0xbe, 0x11, 0x91, 0xca, 0xbd, 0x1a, 0xb2, 0xa1, 0x3d,
  0xcd, 0x09, 0x37, 0xbc, 0xbb, 0x0d, 0x25, 0xbe, 0x90, 0x1a, 0xe5, 0xbd,
  0x5f, 0x50, 0xb3, 0xbd, 0xb7, 0xe3, 0x22, 0xbe, 0x87, 0xb6, 0x03, 0xbd,
  0xa4, 0x2b, 0xc6, 0x3c, 0x3d, 0x2f, 0xd5, 0xbc, 0xef, 0xa1, 0x56, 0xbd,
  0x37, 0x00, 0xcb, 0x3d, 0xc2, 0x2e, 0x46, 0x3c, 0xc8, 0xca, 0xad, 0xbd,
  0xd4, 0xd5, 0x89, 0xbd, 0xe7, 0x9d, 0x5e, 0x3d, 0x08, 0x7c, 0xb4, 0xbd,
  0x74, 0x7c, 0x8c, 0xbd, 0x26, 0xd4, 0xf5, 0xbd, 0x26, 0xae, 0xf3, 0x3d,
  0xa4, 0x4a, 0x5d, 0xbb, 0x9f, 0x28, 0xa7, 0x3d, 0x9c, 0xb5, 0x3a, 0x3d,
  0x93, 0x1d, 0x2e, 0x3d, 0x73, 0xac, 0x6f, 0x3d, 0x85, 0x14, 0x41, 0xbe,
  0x97, 0xfa, 0x3e, 0xbd, 0x67, 0xb9, 0xfd, 0x3d, 0xff, 0x3e, 0xbd, 0xbd,
  0xf4, 0x66, 0x69, 0x3d, 0x15, 0xf3, 0x9e, 0x3d, 0xba, 0x9f, 0x75, 0x3c,
  0xac, 0x6c, 0x3d, 0x3d, 0x9a, 0x0e, 0x17, 0xbe, 0xb1, 0xf5, 0x03, 0xbe,
  0xf7, 0x65, 0x2a, 0xbe, 0xc2, 0xe9, 0x12, 0x3d, 0xb8, 0x24, 0xb4, 0x3d,
  0xae, 0xd7, 0x93, 0xbd, 0x37, 0xce, 0x02, 0x3e, 0x98, 0x6b, 0x69, 0x3d,
  0x81, 0xe6, 0xc4, 0x3c, 0xfe, 0x2d, 0xce, 0x3d, 0x16, 0x32, 0xfd, 0x3d,
  0x3e, 0xf9, 0xc6, 0xbb, 0x0e, 0xae, 0x00, 0xbe, 0x99, 0xb0, 0x9d, 0xbc,
  0x1e, 0x8d, 0xe0, 0x3d, 0x03, 0x66, 0xa0, 0x3d, 0xc8, 0x55, 0x35, 0x3d,
  0x35, 0x8c, 0xdc, 0xbd, 0xfb, 0xb9, 0x40, 0xbe, 0xa8, 0x44, 0xc6, 0x3d,
  0x0f, 0x06, 0x22, 0xbe, 0x09, 0x26, 0xcc, 0x3d, 0xa8, 0x01, 0xd9, 0x3d,
  0x05, 0x88, 0x19, 0x3c, 0xca, 0xf4, 0x1e, 0xbe, 0x6d, 0x6d, 0x41, 0xbe,
  0x9e, 0x6b, 0x29, 0x3d, 0x0a, 0xa0, 0x19, 0xbe, 0xa4, 0xcc, 0xde, 0x3d,
  0x07, 0x1f, 0x99, 0x3d, 0xf2, 0xec, 0xd2, 0xbd, 0x83, 0xbc, 0xc4, 0x3d,
  0x52, 0x80, 0xde, 0xbd, 0xa3, 0xa7, 0x0a, 0x3e, 0xf6, 0x3e, 0x3a, 0xbe,
  0x38, 0xb9, 0x14, 0xbd, 0xbe, 0x92, 0x08, 0xbe, 0x7c, 0xfc, 0x06, 0x3e,
  0xd0, 0x78, 0x77, 0x3d, 0x87, 0xce, 0xed, 0x3d, 0xde, 0xb8, 0xaf, 0xbd,
  0xac, 0xbf, 0xd7, 0xbd, 0xd3, 0xf9, 0xea, 0x3d, 0x89, 0xbf, 0x19, 0xbe,
  0xaa, 0x32, 0x6d, 0x3d, 0x40, 0xd8, 0xb1, 0x3c, 0xf2, 0x62, 0xb9, 0x3d,
  0x21, 0xb2, 0xbb, 0xbd, 0x82, 0x00, 0x40, 0xbe, 0x4e, 0xb6, 0xdd, 0x3d,
  0xf3, 0x8c, 0xe7, 0x3d, 0xe6, 0x38, 0xd6, 0x3d, 0x85, 0x9e, 0xf9, 0x3d,
  0x33, 0x7c, 0x65, 0xbd, 0x06, 0xf1, 0xc7, 0x3d, 0x3d, 0x08, 0x8d, 0x3c,
  0x22, 0xe1, 0x38, 0x3d, 0x88, 0xf1, 0x09, 0x3d, 0x61, 0xf1, 0x8c, 0xbb,
  0xce, 0x15, 0x5c, 0xbd, 0xf0, 0x2a, 0x8e, 0xbd, 0xbf, 0x25, 0x2f, 0xbe,
  0x1d, 0x3a, 0x13, 0xbe, 0x39, 0x92, 0xad, 0xbd, 0xc2, 0x02, 0xca, 0x3c,
  0x9b, 0x57, 0x11, 0xbe, 0x93, 0x73, 0x14, 0xbd, 0x4d, 0xe9, 0x37, 0xbe,
  0xf9, 0x93, 0x2a, 0x3c, 0xd3, 0x09, 0xfc, 0xbd, 0x8d, 0x9b, 0x8d, 0x3d,
  0xb6, 0x1e, 0x83, 0xbd, 0x5d, 0x93, 0xf1, 0x3d, 0xb3, 0x85, 0xe7, 0x3d,
  0x6a, 0xba, 0xe9, 0x3d, 0xea, 0x39, 0x8c, 0xbd, 0x59, 0x8a, 0x82, 0x3d,
  0x5e, 0x81, 0xbd, 0x3c, 0x9b, 0x22, 0x08, 0x3e, 0x58, 0xed, 0x35, 0xbe,
  0x8c, 0x2b, 0x1d, 0xbe, 0xab, 0x15, 0xf7, 0xbd, 0x07, 0x1f, 0x3d, 0xbe,
  0xc5, 0xff, 0x4c, 0x3d, 0x50, 0xdf, 0xbe, 0xbd, 0xac, 0xef, 0x00, 0xbe,
  0xed, 0x6a, 0x0a, 0x3e, 0xb9, 0x07, 0x5d, 0x3c, 0xdf, 0xa3, 0x06, 0xbe,
  0x8b, 0x19, 0xa8, 0xbd, 0xd9, 0xc7, 0x7d, 0xbc, 0xd3, 0xe5, 0xfa, 0xbc,
  0xbc, 0x33, 0x7d, 0x3b, 0xa3, 0xc2, 0xcd, 0xbd, 0x86, 0x3b, 0x2e, 0xbc,
  0x36, 0xec, 0xfa, 0xbb, 0xa5, 0x26, 0xe6, 0xbd, 0x50, 0x7a, 0xff, 0x3c,
  0x1b, 0xba, 0x96, 0x3d, 0x9d, 0x4c, 0x11, 0x3d, 0x33, 0xaa, 0x21, 0xbe,
  0xf4, 0x88, 0xbe, 0xbd, 0x67, 0xda, 0xaf, 0x3d, 0xf5, 0xbd, 0x12, 0xbe,
  0x6e, 0xe1, 0xfa, 0xbd, 0xfa, 0xdd, 0x56, 0x3d, 0xff, 0x3a, 0x16, 0xbd,
  0xb1, 0xd6, 0xea, 0xbd, 0x56, 0x44, 0x06, 0x3e, 0x07, 0x65, 0x59, 0xbd,
  0x44, 0x1a, 0xe8, 0xbd, 0xfc, 0x3e, 0x9a, 0x3d, 0x8a, 0x05, 0x2b, 0xbd,
  0x6c, 0x98, 0xd3, 0xbd, 0x7c, 0xe4, 0xd9, 0x3d, 0x6b, 0xa4, 0x01, 0x3e,
  0xab, 0x5a, 0x88, 0x3c, 0xc1, 0x59, 0xa1, 0x3d, 0xa0, 0xe0, 0x50, 0xbc,
  0x22, 0x70, 0x9a, 0xbd, 0xd4, 0xa3, 0x17, 0xbe, 0xd4, 0x0e, 0xbb, 0x3d,
  0x23, 0x42, 0x05, 0x3c, 0x35, 0x86, 0xa2, 0xbd, 0xab, 0xd9, 0x11, 0x3e,
  0xe6, 0x57, 0x5a, 0xbd, 0x33, 0x2e, 0x18, 0xbe, 0xf6, 0xbe, 0xc4, 0xbc,
  0xa6, 0xc1, 0xaa, 0xbd, 0x21, 0x40, 0xf7, 0x3d, 0x32, 0xcb, 0x4c, 0xbd,
  0x27, 0x4d, 0xcc, 0x3d, 0x19, 0x67, 0x83, 0x3d, 0x0f, 0xa2, 0xda, 0xbd,
  0xd4, 0x92, 0xe7, 0x3c, 0x66, 0xd1, 0x10, 0xbe, 0x5c, 0x11, 0x59, 0x3d,
  0x6c, 0xe2, 0x5f, 0xbd, 0xaf, 0x5f, 0x97, 0xbd, 0xec, 0xeb, 0x07, 0xbd,
  0x48, 0x01, 0x15, 0xbe, 0xc8, 0xa3, 0xbd, 0xbd, 0xfa, 0x93, 0xef, 0xbd,
  0xd4, 0x13, 0xc5, 0x3b, 0x57, 0x16, 0x30, 0xbe, 0x49, 0x84, 0xf1, 0x3c,
  0x2d, 0xd9, 0xef, 0xbd, 0x19, 0x89, 0x9e, 0xbd, 0xb1, 0xac, 0x6e, 0x3d,
  0xea, 0x98, 0x00, 0x3d, 0xd5, 0x4f, 0xb5, 0xbc, 0x02, 0xa9, 0x1a, 0xbd,
  0x5b, 0xb2, 0xf3, 0xbd, 0xda, 0xfd, 0x04, 0xbe, 0x87, 0x5d, 0x91, 0xbd,
  0xbc, 0x4f, 0x93, 0xbc, 0x54, 0x3c, 0xe6, 0x3d, 0xa5, 0x85, 0x92, 0xbc,
  0xa2, 0xec, 0x06, 0x3e, 0x60, 0x20, 0xe3, 0x3d, 0xc8, 0xd3, 0xbb, 0xbc,
  0x9a, 0x4a, 0x5c, 0x3d, 0x26, 0x31, 0x71, 0xbd, 0x90, 0xda, 0x29, 0xbe,
  0x12, 0xc4, 0x3e, 0x3c, 0xc0, 0xd3, 0x10, 0x3e, 0x9c, 0x6b, 0x23, 0x3d,
  0xc1, 0x5a, 0x2d, 0xbe, 0x45, 0x6c, 0x36, 0xbe, 0xc5, 0xf4, 0xfc, 0x3d,
  0x45, 0x8f, 0x2b, 0xbe, 0x56, 0x29, 0xeb, 0x3c, 0x99, 0xe9, 0xff, 0x3d,
  0x40, 0x97, 0xc3, 0x3d, 0xeb, 0x8e, 0xb7, 0x3d, 0x14, 0x27, 0x69, 0x3d,
  0xea, 0xf8, 0xf0, 0xbd, 0xe8, 0xbf, 0xa6, 0xbd, 0xef, 0x56, 0xed, 0xbd,
  0x9d, 0xca, 0x42, 0x3c, 0x79, 0x0f, 0x17, 0xbe, 0xf9, 0xbd, 0x2f, 0x3d,
  0x4e, 0xa8, 0x33, 0xbe, 0xbd, 0x8b, 0x12, 0xbe, 0x83, 0xd9, 0x14, 0xbd,
  0xdc, 0x3d, 0x13, 0xbe, 0x44, 0xbc, 0x2f, 0xbe, 0xf7, 0xbf, 0xd6, 0x3d,
  0xa8, 0xc8, 0xcb, 0x3b, 0x46, 0x28, 0xb1, 0xba, 0x53, 0xad, 0x01, 0x3d,
  0xcc, 0x7a, 0xfb, 0xbc, 0x7d, 0x51, 0xd0, 0x3d, 0xe5, 0x3c, 0x00, 0x3e,
  0x25, 0x14, 0x0e, 0xbd, 0x4e, 0x6e, 0x0e, 0xbe, 0x38, 0x46, 0xa6, 0x3d,
  0xc6, 0x8c, 0x0b, 0xbe, 0xb8, 0x2a, 0x92, 0x3a, 0x7d, 0x82, 0xed, 0xbc,
  0xac, 0xef, 0x88, 0x3b, 0xac, 0xfa, 0x15, 0xbe, 0xeb, 0x4f, 0x83, 0xbd,
  0x0a, 0x83, 0x9b, 0x3d, 0x6d, 0xc6, 0x57, 0xbd, 0xeb, 0x21, 0x03, 0x3e,
  0xb4, 0x71, 0xc0, 0xbd, 0xca, 0x03, 0x1f, 0xbd, 0x7d, 0xa3, 0x3c, 0x3d,
  0x32, 0xa3, 0xb2, 0xbd, 0x8d, 0xc9, 0xf6, 0x3d, 0x23, 0x19, 0x32, 0xbd,
  0x05, 0x3a, 0x11, 0x3d, 0xb1, 0x5c, 0xaf, 0x3d, 0x60, 0x69, 0xa9, 0xbc,
  0xdb, 0xb8, 0xa1, 0xbd, 0xe8, 0x01, 0x23, 0x3d, 0x72, 0xcb, 0x0d, 0xbe,
  0xe7, 0xe4, 0x37, 0xbe, 0xad, 0xc0, 0x86, 0x3c, 0x52, 0xf8, 0x87, 0xbb,
  0xc0, 0xe6, 0xa6, 0xbd, 0xe1, 0x13, 0xbe, 0x3c, 0x97, 0xbc, 0xc1, 0xbb,
  0x07, 0x6f, 0x46, 0x3d, 0xe8, 0x81, 0x0f, 0xbe, 0xad, 0x02, 0xee, 0x3d,
  0x69, 0xfc, 0xa1, 0xbd, 0x8d, 0xaf, 0xba, 0x3d, 0xdf, 0x40, 0x2f, 0xbe,
  0xe7, 0x84, 0xdc, 0xbd, 0xad, 0x70, 0x10, 0x3e, 0xbe, 0x5b, 0xba, 0x3d,
  0x61, 0xd2, 0xa1, 0xbd, 0xa7, 0x94, 0x9b, 0x3d, 0xc1, 0x6d, 0x06, 0xbe,
  0x15, 0x73, 0xb7, 0xbc, 0xf2, 0xad, 0xe1, 0x3d, 0x52, 0x65, 0x94, 0xbd,
  0x80, 0xdc, 0xc8, 0x3c, 0xbe, 0xbe, 0x16, 0x3e, 0xce, 0x12, 0xf7, 0xbd,
  0xc8, 0xc9, 0xf6, 0x3d, 0x17, 0x01, 0x95, 0x3d, 0x07, 0xc6, 0x3a, 0x3d,
  0x41, 0x91, 0x89, 0x3d, 0x92, 0xc5, 0xd8, 0x3b, 0x0c, 0xf1, 0x08, 0x3e,
  0x18, 0x37, 0xef, 0x3d, 0x93, 0xcc, 0xb6, 0x3d, 0xa2, 0xce, 0xef, 0x3d,
  0x88, 0x05, 0xe8, 0x3d, 0x20, 0xa5, 0x69, 0xbd, 0xc1, 0xe5, 0x52, 0xbb,
  0xbc, 0xba, 0x00, 0xbe, 0xbf, 0x1b, 0x19, 0xbe, 0xad, 0xc7, 0x29, 0x3d,
  0x62, 0x8c, 0xa8, 0xbd, 0x27, 0x7f, 0x10, 0x3e, 0x72, 0xa1, 0x78, 0x3d,
  0x01, 0x94, 0x0a, 0xbd, 0x02, 0x5d, 0xe1, 0x3c, 0xb7, 0x0d, 0xd6, 0xbc,
  0x67, 0x34, 0xcf, 0x3d, 0x87, 0x3b, 0x18, 0xbe, 0xad, 0x55, 0xdb, 0xbd,
  0x6f, 0xcf, 0x18, 0xbe, 0x77, 0xe2, 0x28, 0xbe, 0x99, 0xa5, 0x0f, 0x3c,
  0x50, 0x77, 0xc6, 0xbc, 0x3e, 0x60, 0xc7, 0xbd, 0xdd, 0x6c, 0x26, 0xbd,
  0x6c, 0xf8, 0xbe, 0xbb, 0x57, 0x88, 0xbd, 0xbd, 0xb7, 0x60, 0xb5, 0xbd,
  0x56, 0xec, 0x5c, 0x3c, 0x1d, 0xc3, 0x07, 0xbd, 0x82, 0x7c, 0xfa, 0xbd,
  0xb2, 0x09, 0xd2, 0xbd, 0xb7, 0xbd, 0x36, 0xbe, 0x2d, 0x4d, 0x9a, 0x3d,
  0xf0, 0xda, 0x63, 0x3c, 0x8a, 0x71, 0x6a, 0xbc, 0x48, 0xdc, 0x9d, 0xbd,
  0x28, 0x28, 0x81, 0x3c, 0x65, 0x7a, 0xec, 0x3d, 0x8e, 0x09, 0x1d, 0xbe,
  0x60, 0xa5, 0xca, 0xbd, 0x5a, 0xf3, 0x37, 0x3d, 0xc9, 0xfd, 0xa1, 0x3d,
  0xd4, 0x6c, 0x03, 0xbe, 0xd6, 0xa6, 0xf1, 0xbd, 0xa2, 0x9f, 0xfc, 0x3d,
  0x67, 0x75, 0x1e, 0xbe, 0x1a, 0x1e, 0x48, 0xbd, 0xed, 0xb5, 0x2e, 0xbe,
  0x93, 0x58, 0x09, 0xbb, 0xf9, 0x8f, 0x99, 0x3d, 0x4a, 0x46, 0xc8, 0xbd,
  0x37, 0x99, 0x17, 0xbe, 0xff, 0xce, 0xb4, 0x3d, 0xb2, 0xfd, 0x25, 0xbd,
  0x51, 0xbc, 0x13, 0x3e, 0x77, 0xd1, 0x13, 0x3e, 0x4f, 0xa0, 0x22, 0xbe,
  0xab, 0x5a, 0x22, 0xbe, 0x1c, 0x96, 0x55, 0xbd, 0x39, 0x6b, 0xab, 0x3d,
  0x18, 0xa6, 0x14, 0xbe, 0xde, 0xb9, 0xe1, 0x3d, 0x56, 0x60, 0x18, 0xbe,
  0xf7, 0x50, 0x24, 0x3c, 0x47, 0x45, 0xa8, 0xbd, 0x7c, 0x3a, 0x16, 0x3e,
  0xea, 0x80, 0x2d, 0xbe, 0xd5, 0xb3, 0x2b, 0xbd, 0x90, 0x5c, 0xb4, 0xbd,
  0xf9, 0xa1, 0x91, 0x3d, 0x5d, 0x75, 0x12, 0xbe, 0x9c, 0x04, 0x8f, 0x3d,
  0xee, 0x65, 0x18, 0x3e, 0x65, 0x8c, 0xc4, 0x3d, 0xd9, 0xde, 0xae, 0x3d,
  0xa3, 0x23, 0xdf, 0x3d, 0xf9, 0x20, 0x0e, 0x3e, 0xf5, 0xd7, 0x1b, 0xbd,
  0x31, 0xc0, 0x45, 0xbd, 0x15, 0x19, 0x9c, 0x3d, 0xa8, 0xc2, 0x5d, 0xbd,
  0xae, 0xee, 0x0c, 0xbe, 0xb1, 0x9b, 0x04, 0xbe, 0xea, 0x9c, 0xf8, 0x3c,
  0x1c, 0x4f, 0x97, 0xbb, 0x1b, 0x61, 0x05, 0x3e, 0x12, 0xc0, 0x85, 0xbc,
  0x7f, 0xe2, 0xc3, 0x3d, 0x74, 0x9e, 0x0e, 0x3e, 0xc8, 0x64, 0xac, 0xbd,
  0x61, 0x7d, 0xd6, 0x3c, 0x05, 0xb8, 0x2b, 0xbe, 0xd4, 0x3e, 0x49, 0xbd,
  0x23, 0x24, 0x4e, 0x3d, 0xe3, 0x24, 0x31, 0xbe, 0x2e, 0x68, 0x08, 0xbe,
  0xc6, 0x79, 0xcf, 0x3b, 0xd4, 0xb4, 0xd3, 0xbc, 0x0c, 0x98, 0x3a, 0x3b,
  0x0f, 0x22, 0xaf, 0x3c, 0xe8, 0x2f, 0xf6, 0x3d, 0x5b, 0x23, 0x95, 0x3c,
  0x14, 0x15, 0x33, 0xbe, 0x12, 0x55, 0xe8, 0x3d, 0x80, 0x32, 0x15, 0xbd,
  0x12, 0x68, 0x26, 0x3b, 0x9f, 0xa7, 0xac, 0x3c, 0x18, 0x36, 0x9b, 0x3d,
  0x19, 0xdc, 0x07, 0x3e, 0xf3, 0x84, 0x6b, 0xbc, 0x8c, 0x54, 0x06, 0x3d,
  0x77, 0xd9, 0xca, 0x3d, 0x26, 0x07, 0x8d, 0xbc, 0x30, 0xbe, 0x48, 0xbd,
  0xc6, 0xfb, 0xac, 0xbd, 0x40, 0xa1, 0xd9, 0x3d, 0xd7, 0x4e, 0xf2, 0xbd,
  0x0f, 0xc4, 0xea, 0x3d, 0x70, 0x13, 0x24, 0xbe, 0xc4, 0x67, 0x1c, 0xbe,
  0xd3, 0x22, 0xe4, 0x3d, 0xb4, 0x5d, 0x5d, 0xbc, 0xf7, 0x5c, 0xc8, 0x3d,
  0x58, 0x19, 0x0f, 0x3e, 0x4f, 0x9a, 0x68, 0x3c, 0xcb, 0x4a, 0xaf, 0x3d,
  0xb1, 0xbc, 0x34, 0xbc, 0x52, 0xd7, 0x70, 0x3d, 0x21, 0xf6, 0x0f, 0xbe,
  0x9f, 0x92, 0x31, 0xbd, 0x3b, 0xd3, 0xed, 0x3d, 0xc8, 0xe7, 0x08, 0xbe,
  0x77, 0x72, 0xfb, 0x3d, 0xca, 0x33, 0x68, 0xbd, 0xb9, 0x4f, 0xc0, 0xbd,
  0xcf, 0x70, 0x64, 0x3d, 0x05, 0x7d, 0x25, 0xbe, 0x61, 0x2d, 0x05, 0xbe,
  0x15, 0xd4, 0xd8, 0xbd, 0xca, 0xe5, 0x43, 0xbd, 0xe1, 0x6c, 0x8b, 0x3d,
  0x13, 0x46, 0xed, 0xbc, 0xf2, 0x93, 0x52, 0x3d, 0x66, 0x51, 0x11, 0xbe,
  0x86, 0xf7, 0x1a, 0xbe, 0xf6, 0x9a, 0xeb, 0x3c, 0x76, 0x7b, 0x94, 0xbd,
  0x38, 0x4b, 0x13, 0x3e, 0xdc, 0x26, 0x2b, 0xbe, 0x23, 0x67, 0x9c, 0xbc,
  0xb0, 0x8f, 0x3e, 0xbe, 0xf6, 0x0b, 0x21, 0xbd, 0x7a, 0xb5, 0xc9, 0xbd,
  0xe8, 0xd3, 0xba, 0x3d, 0x74, 0x73, 0x64, 0xbd, 0x72, 0xf8, 0xd0, 0x3d,
  0x40, 0x5f, 0x89, 0x3c, 0xf3, 0xab, 0xbf, 0x3d, 0xeb, 0xce, 0xe6, 0x3d,
  0x24, 0xa3, 0x0d, 0x3e, 0xf7, 0x64, 0x67, 0x3c, 0x83, 0x14, 0x4a, 0xbd,
  0xa9, 0x1f, 0xd4, 0x3c, 0x88, 0x40, 0x46, 0xbd, 0x0b, 0x56, 0xf3, 0x3d,
  0x3b, 0x99, 0xe9, 0xbd, 0x10, 0x0e, 0x53, 0x3a, 0x00, 0x26, 0xa1, 0x3d,
  0xbb, 0x2d, 0x08, 0x3e, 0x69, 0x71, 0x77, 0x3d, 0x08, 0xb1, 0x3b, 0xbe,
  0xf8, 0xa8, 0x2d, 0xbb, 0x98, 0x83, 0xf8, 0x3b, 0xde, 0xba, 0x16, 0x3c,
  0x81, 0xd0, 0x27, 0xbe, 0xf6, 0xba, 0xa9, 0xbd, 0x29, 0x9c, 0x46, 0xbd,
  0xff, 0x59, 0x54, 0xbc, 0x5c, 0xc9, 0xb3, 0x3d, 0x61, 0xb4, 0x7f, 0x3c,
  0x20, 0xbc, 0xc1, 0x3d, 0xd3, 0xd2, 0x46, 0xbd, 0xad, 0xab, 0x2b, 0xbe,
  0x3f, 0x8d, 0xdf, 0xbd, 0x01, 0x44, 0xac, 0x3d, 0x4a, 0x75, 0xbf, 0x3d,
  0x30, 0xd6, 0x30, 0xbe, 0x67, 0x3b, 0x0a, 0x3e, 0xfd, 0xcc, 0x83, 0x3c,
  0x30, 0xf9, 0x8a, 0xbd, 0xcf, 0x7c, 0x01, 0x3d, 0xb3, 0x91, 0xf2, 0x3d,
  0x4f, 0x83, 0x07, 0xbd, 0xd6, 0x5f, 0xcb, 0x3d, 0x0e, 0x3b, 0xbb, 0xbd,
  0x69, 0xac, 0xa1, 0xbd, 0xdd, 0xd0, 0x36, 0xbe, 0x82, 0xd1, 0xd2, 0xbb,
  0xbc, 0xdc, 0x07, 0xbe, 0xb9, 0x45, 0x51, 0x3c, 0x8b, 0xc1, 0xc5, 0xbd,
  0xee, 0x29, 0x0e, 0x3e, 0xaf, 0x9c, 0x06, 0xbc, 0x79, 0x83, 0x2b, 0x3d,
  0xb1, 0x88, 0x0b, 0xbe, 0xdf, 0x61, 0x1d, 0xbd, 0xe6, 0x20, 0x1f, 0xbd,
  0x06, 0xb1, 0x39, 0x3b, 0x92, 0x81, 0x8d, 0x3d, 0xb1, 0x61, 0xd6, 0x3d,
  0x68, 0x21, 0x47, 0x3d, 0x7b, 0x49, 0xcd, 0x3d, 0x79, 0xb9, 0x31, 0x3d,
  0x89, 0xf9, 0xb6, 0x3d, 0xb5, 0xf4, 0x05, 0x3d, 0x04, 0x0e, 0xce, 0xbc,
  0x52, 0x6a, 0x87, 0xbd, 0x19, 0x24, 0x08, 0xbe, 0x89, 0x1f, 0x56, 0x3d,
  0x28, 0xee, 0x1b, 0xbd, 0x53, 0x5a, 0xf5, 0xbd, 0xce, 0xbe, 0x06, 0x3e,
  0xe5, 0x1d, 0x15, 0xbe, 0xda, 0xa6, 0x25, 0x3c, 0x40, 0xda, 0x1f, 0x3d,
  0xec, 0x0a, 0xec, 0x3d, 0xb4, 0x50, 0x08, 0x3e, 0x32, 0xfb, 0x34, 0xbe,
  0x37, 0xf2, 0xa7, 0xbd, 0xfa, 0x64, 0xfc, 0xbd, 0x74, 0x0e, 0xe5, 0xbc,
  0xfd, 0xeb, 0x3e, 0xbe, 0x2a, 0x76, 0xb0, 0xbd, 0xa8, 0x04, 0xa9, 0x3d,
  0x89, 0xb0, 0x49, 0xbd, 0x4c, 0xc6, 0xa3, 0xbc, 0x10, 0x94, 0x7b, 0x3c,
  0xc3, 0xfc, 0xf4, 0x3c, 0x42, 0x4a, 0xd1, 0x3c, 0xd2, 0x0a, 0x99, 0xbd,
  0xfb, 0x7b, 0xe7, 0x3d, 0x00, 0xfd, 0x0d, 0x3e, 0x26, 0xee, 0xf7, 0xbd,
  0x49, 0x29, 0xa6, 0xbd, 0x2c, 0x1c, 0xb8, 0xbd, 0xf9, 0x5c, 0x0f, 0xbe,
  0x88, 0x51, 0x83, 0x3c, 0xa3, 0x13, 0xe3, 0xbb, 0x49, 0xd4, 0x08, 0xbe,
  0xbe, 0x75, 0xbf, 0xbd, 0xb2, 0x8c, 0xf4, 0xbd, 0x47, 0x6d, 0x16, 0xbd,
  0x73, 0x10, 0xd5, 0xbd, 0xbd, 0xfe, 0x2c, 0xbe, 0x23, 0xa9, 0xf4, 0xbd,
  0x44, 0x10, 0xf8, 0x3d, 0x6d, 0xfd, 0xbd, 0xbc, 0xd1, 0x6c, 0xd0, 0xbd,
  0xdf, 0x3e, 0x3f, 0xbe, 0xb2, 0x66, 0x17, 0xbe, 0x7f, 0x57, 0xd4, 0xbd,
  0xf7, 0xa2, 0xb8, 0xbd, 0x87, 0x8b, 0xe4, 0xbc, 0x26, 0x9d, 0xd4, 0x3d,
  0xca, 0xe6, 0xef, 0xbd, 0xd4, 0xb4, 0x1d, 0xbe, 0x65, 0xa5, 0xed, 0xbd,
  0x06, 0xda, 0xe3, 0x3d, 0xbf, 0x45, 0x37, 0xbe, 0xaf, 0x04, 0x6a, 0x3d,
  0x17, 0x53, 0xcd, 0xbc, 0x06, 0x27, 0xaa, 0x3d, 0xc8, 0x72, 0xd6, 0xbc,
  0x3e, 0x60, 0xc5, 0x3d, 0xfc, 0x24, 0x31, 0xbe, 0x15, 0x42, 0xfb, 0xbc,
  0x97, 0xb1, 0xf9, 0x3d, 0xdb, 0xbd, 0x44, 0x3d, 0xab, 0xf2, 0x3d, 0xbe,
  0xe7, 0x32, 0x24, 0x3d, 0x8f, 0x25, 0xed, 0x3b, 0x13, 0x5a, 0xf8, 0x3c,
  0x02, 0x6f, 0xfc, 0x3c, 0xbf, 0x18, 0x29, 0x3d, 0xed, 0x03, 0x56, 0xbc,
  0x6b, 0xb2, 0xf7, 0x3c, 0x7a, 0xd1, 0x89, 0xbd, 0xa0, 0xe0, 0xde, 0x3c,
  0x98, 0xd7, 0x6d, 0x3b, 0x0e, 0x6a, 0x7d, 0x3d, 0xd8, 0x93, 0x0d, 0x3e,
  0x06, 0x74, 0xac, 0x3d, 0x4c, 0xf6, 0x8a, 0x3d, 0x36, 0x22, 0x87, 0x3d,
  0x56, 0x0a, 0x75, 0xbd, 0xd9, 0xf5, 0xbc, 0xbc, 0x68, 0xf1, 0x5b, 0x3d,
  0x1c, 0xb3, 0x08, 0xbd, 0x09, 0xed, 0x6a, 0x3d, 0x09, 0xf2, 0x21, 0x3d,
  0x34, 0x0c, 0x36, 0xbd, 0x46, 0x59, 0xd9, 0x3d, 0x9d, 0x69, 0x05, 0x3e,
  0x90, 0x97, 0x80, 0xbd, 0xfa, 0x49, 0xe9, 0xbc, 0xaa, 0x70, 0xb0, 0x3d,
  0x7b, 0xc4, 0x27, 0x3c, 0x8c, 0xc5, 0x77, 0x3c, 0x5f, 0x9f, 0x9c, 0x3d,
  0x7b, 0x6a, 0x41, 0x3d, 0x92, 0x5b, 0xfe, 0x3d, 0x94, 0x67, 0x3e, 0x39,
  0xe7, 0x7a, 0x52, 0xbd, 0x33, 0x07, 0x81, 0x3d, 0xd3, 0x35, 0x86, 0xbd,
  0xd5, 0x39, 0x08, 0x3e, 0x13, 0x88, 0xba, 0x3d, 0x47, 0x24, 0x91, 0xbd,
  0x0e, 0x08, 0x72, 0x3d, 0x35, 0xc0, 0xa5, 0xbc, 0xfb, 0x20, 0x0d, 0x3e,
  0x6f, 0x96, 0xfd, 0xbc, 0x02, 0x55, 0x5e, 0x3d, 0xb1, 0xfd, 0x9e, 0x3c,
  0xa1, 0x9a, 0x14, 0x3d, 0xfd, 0x9d, 0xc8, 0xbc, 0x3c, 0x4c, 0x3c, 0xbd,
  0x01, 0x36, 0x7e, 0xbb, 0x8a, 0xac, 0x60, 0xbd, 0xdf, 0xca, 0xee, 0x3d,
  0x34, 0xa4, 0x1e, 0x3e, 0x90, 0xff, 0xbf, 0xbd, 0x4b, 0xab, 0x4d, 0xbd,
  0x57, 0x0b, 0x19, 0x3d, 0x9a, 0xf7, 0x63, 0x3c, 0xa0, 0xc1, 0xe2, 0x3c,
  0x6b, 0x62, 0x50, 0xbd, 0xa5, 0xb0, 0xe3, 0x3d, 0x05, 0x75, 0xf7, 0xba,
  0x29, 0x13, 0xf9, 0xbc, 0xb4, 0xd6, 0x8e, 0x3d, 0xcc, 0xb5, 0x37, 0x3d,
  0x1b, 0x05, 0x10, 0x3d, 0xf5, 0xcb, 0x0a, 0x3e, 0x36, 0x67, 0x31, 0x3d,
  0x6b, 0x06, 0x5f, 0xbd, 0x1b, 0x0c, 0xa8, 0xbd, 0xea, 0xe5, 0xbe, 0xbc,
  0xa1, 0x73, 0x4e, 0x3d, 0xd7, 0x72, 0x44, 0x3d, 0x82, 0x6b, 0x89, 0xbc,
  0xbe, 0x53, 0x9d, 0x3d, 0xc3, 0x79, 0x92, 0x3d, 0x02, 0x38, 0xaa, 0x3c,
  0xa1, 0x23, 0xc4, 0x3c, 0xd9, 0x59, 0x04, 0xbd, 0x72, 0x6f, 0xc0, 0xbd,
  0x72, 0x12, 0x10, 0x3e, 0x6b, 0x8a, 0x15, 0xbd, 0x94, 0x61, 0x01, 0x3e,
  0x83, 0x82, 0x98, 0x3c, 0x57, 0xad, 0x58, 0x3d, 0xa8, 0x5a, 0x63, 0x3d,
  0xbe, 0x30, 0xe4, 0xbd, 0x22, 0xab, 0x7b, 0xbd, 0x12, 0xe3, 0xb5, 0x3d,
  0x18, 0xed, 0x5f, 0x38, 0x0c, 0xb0, 0x2d, 0xbd, 0x66, 0x08, 0x80, 0x3b,
  0x44, 0x65, 0x80, 0x3d, 0xeb, 0xed, 0x58, 0x3d, 0xaa, 0x29, 0x9c, 0x3d,
  0x5c, 0xd8, 0xf3, 0x3d, 0xc4, 0x54, 0xe6, 0x3c, 0x82, 0x7c, 0x26, 0xbb,
  0xe3, 0x95, 0x98, 0x3d, 0x92, 0x9d, 0xb3, 0x3d, 0x3d, 0x74, 0x1f, 0x3c,
  0xc0, 0x0b, 0xf3, 0xbc, 0x3a, 0x1f, 0x6c, 0xbc, 0xfb, 0x75, 0x9c, 0xbc,
  0x80, 0x99, 0x24, 0x3d, 0xa3, 0x86, 0xef, 0xbc, 0xce, 0x52, 0x71, 0xbd,
  0x32, 0x04, 0x00, 0xbd, 0xf8, 0xbc, 0xfd, 0xbc, 0x52, 0xff, 0xd3, 0x3d,
  0xe4, 0xf3, 0xeb, 0xbc, 0xa3, 0x71, 0xed, 0xbc, 0x1b, 0x49, 0x35, 0x3e,
  0x16, 0x9a, 0x51, 0x3d, 0x3f, 0xf1, 0x61, 0x3d, 0x9b, 0x36, 0x7d, 0xbd,
  0x62, 0xa3, 0xc5, 0x3c, 0x8e, 0xd3, 0x74, 0x3d, 0x47, 0x51, 0xc1, 0xbc,
  0x1a, 0x98, 0x00, 0xbc, 0x44, 0xa6, 0x20, 0xbd, 0x5c, 0x21, 0xc0, 0x3d,
  0xe4, 0x45, 0xd6, 0x3b, 0x94, 0xde, 0x14, 0xbc, 0x18, 0xbc, 0x3e, 0x3c,
  0x14, 0x33, 0xa9, 0x3d, 0x3a, 0x87, 0x40, 0x3d, 0xa9, 0x9d, 0x3c, 0xbd,
  0x64, 0x33, 0x26, 0x3d, 0xd9, 0xb9, 0xb9, 0x3d, 0xd9, 0xfa, 0x84, 0x3d,
  0xe1, 0xff, 0x28, 0x3d, 0x86, 0xd2, 0xe9, 0x3c, 0x61, 0x74, 0x23, 0x3e,
  0xba, 0x4b, 0xe3, 0x3d, 0xef, 0x5f, 0xce, 0xbd, 0x75, 0x4c, 0x14, 0x3e,
  0xb5, 0xce, 0xc9, 0x3d, 0xdb, 0xc6, 0x42, 0xbc, 0x13, 0x25, 0xa4, 0x3c,
  0xdb, 0x47, 0x2a, 0xbd, 0x5e, 0x02, 0xea, 0x3d, 0x19, 0xd8, 0x0b, 0xbd,
  0xe2, 0x5c, 0xd6, 0xbc, 0x23, 0xf1, 0x41, 0x3d, 0x1a, 0xb1, 0xad, 0xbd,
  0xab, 0x87, 0xc1, 0xbc, 0x3e, 0xfd, 0x87, 0x3d, 0xa6, 0x2c, 0x8a, 0xbb,
  0x82, 0xbc, 0xe7, 0xbd, 0xec, 0x8b, 0x9c, 0x3d, 0xa2, 0x58, 0x3c, 0x3d,
  0x82, 0x44, 0x3a, 0xbd, 0x4b, 0xa0, 0xbf, 0x3d, 0xa1, 0x48, 0x12, 0x3d,
  0x80, 0xf0, 0xf0, 0x3d, 0x1b, 0xdf, 0xd6, 0xbc, 0x79, 0xa5, 0x1c, 0x3e,
  0xb0, 0x2f, 0xa4, 0x3d, 0x9f, 0xa8, 0x91, 0x3d, 0xae, 0xa8, 0xc7, 0x3d,
  0x0b, 0x9f, 0x07, 0x3b, 0x43, 0x6c, 0x9f, 0x3d, 0xb5, 0x2b, 0x2d, 0xbd,
  0x21, 0x4b, 0x18, 0xbc, 0x40, 0x62, 0x90, 0x3d, 0x2b, 0xaa, 0x09, 0x3d,
  0x2e, 0x03, 0xb8, 0x3c, 0xf8, 0x0f, 0xa5, 0x3b, 0x3d, 0xea, 0x2b, 0x3d,
  0x76, 0xcf, 0x0c, 0x3c, 0x01, 0x7a, 0xf0, 0xbd, 0xd0, 0x1a, 0x90, 0x3d,
  0x22, 0x77, 0xce, 0x3d, 0xbc, 0x40, 0x8d, 0x3c, 0xbf, 0xaa, 0xdf, 0x3a,
  0x45, 0xdf, 0xab, 0x3d, 0x82, 0x28, 0x1f, 0x3e, 0x06, 0xae, 0x73, 0x3d,
  0x2f, 0x97, 0x37, 0x3b, 0xb7, 0x40, 0x89, 0x3d, 0xcc, 0x44, 0x2b, 0x3d,
  0x48, 0x7b, 0x85, 0xbd, 0xbc, 0x8a, 0x6f, 0x3d, 0xc5, 0x4c, 0x56, 0xbc,
  0xc1, 0x54, 0xca, 0xbc, 0x08, 0x7b, 0x3d, 0x3c, 0xa6, 0x88, 0x27, 0xbd,
  0xa0, 0x37, 0xf0, 0x3c, 0x63, 0x3d, 0xfb, 0xbd, 0x1a, 0x9c, 0x9f, 0xbd,
  0x55, 0x6d, 0x09, 0xbd, 0x42, 0x56, 0x46, 0x3d, 0x69, 0x43, 0x01, 0xbd,
  0x71, 0xfd, 0x05, 0xbd, 0x5f, 0x48, 0x81, 0xbd, 0x32, 0xdc, 0x91, 0x3d,
  0x60, 0x95, 0xeb, 0xbd, 0xc3, 0xec, 0x30, 0xbd, 0x2c, 0x07, 0xd0, 0x3d,
  0xeb, 0x1e, 0x59, 0x3d, 0xb8, 0xe5, 0x83, 0xbc, 0xbe, 0x79, 0xd4, 0xbd,
  0x0f, 0x94, 0xa3, 0x3d, 0xad, 0xcf, 0xf9, 0x3c, 0x65, 0x45, 0x18, 0x3e,
  0x4c, 0x5c, 0x78, 0x3d, 0x03, 0xa7, 0x2c, 0xbe, 0xdb, 0x23, 0xd7, 0x3d,
  0xaa, 0x00, 0xdd, 0xbd, 0x87, 0x23, 0x13, 0xbe, 0x52, 0x72, 0xcc, 0xbd,
  0x30, 0x14, 0xd8, 0x3d, 0x97, 0x3b, 0x51, 0x3d, 0x68, 0x7b, 0x66, 0xbd,
  0x01, 0xff, 0xda, 0xbd, 0x14, 0x5d, 0xa9, 0x3a, 0x1e, 0x70, 0xef, 0x3d,
  0x3c, 0x46, 0x18, 0xbd, 0x3f, 0xe4, 0x2b, 0x3d, 0x40, 0xef, 0x26, 0xbe,
  0xd3, 0xa8, 0x08, 0xbe, 0xa8, 0xdf, 0x96, 0xbd, 0xd1, 0x29, 0x23, 0xbe,
  0x6e, 0x23, 0x39, 0xbd, 0xdd, 0xa9, 0x08, 0x3e, 0x44, 0x79, 0x09, 0x3e,
  0x26, 0xab, 0x05, 0xbe, 0x3b, 0x39, 0x07, 0xbe, 0xb9, 0x27, 0xc7, 0x3c,
  0x21, 0x33, 0x8f, 0x3d, 0x3f, 0x87, 0x74, 0xbd, 0x61, 0xb0, 0x12, 0xbe,
  0x23, 0x0c, 0x19, 0xbe, 0x7e, 0x03, 0x9f, 0xbd, 0x04, 0x8c, 0x66, 0xbd,
  0x5f, 0x3f, 0xa2, 0xbd, 0x37, 0x4f, 0xda, 0x3d, 0xb6, 0x06, 0x81, 0x3d,
  0x2a, 0x52, 0xd8, 0x3d, 0x67, 0x13, 0xdb, 0xbd, 0x15, 0x86, 0x10, 0x3d,
  0x61, 0xcb, 0x04, 0xbe, 0x75, 0x5b, 0x0c, 0x3e, 0x3e, 0x2c, 0x02, 0x3e,
  0x80, 0x27, 0x03, 0x3e, 0x3a, 0x64, 0xce, 0x3d, 0x62, 0x9f, 0xf0, 0xbd,
  0xe8, 0xb8, 0xcb, 0x3c, 0xfd, 0x99, 0xae, 0xbd, 0x2d, 0xd6, 0xbc, 0xbd,
  0xe9, 0xfc, 0xba, 0xbd, 0xd7, 0xa8, 0x32, 0xbe, 0x91, 0x1d, 0xbd, 0xbc,
  0xb2, 0xaa, 0x08, 0x3e, 0x58, 0xb3, 0x08, 0x3e, 0x12, 0xf0, 0xf1, 0x3d,
  0x2c, 0x75, 0xe0, 0xbc, 0xe0, 0xd6, 0xd8, 0xbd, 0x55, 0x3a, 0xc7, 0x3d,
  0xbd, 0x0c, 0x44, 0xbd, 0x4f, 0xca, 0xdb, 0xbd, 0x31, 0xeb, 0x17, 0xbe,
  0x26, 0x87, 0x9c, 0x3c, 0xca, 0x7a, 0xd6, 0xbd, 0xc8, 0x9d, 0x09, 0xbe,
  0xeb, 0xc4, 0x33, 0xbe, 0x6d, 0x8e, 0xf0, 0x3d, 0x5e, 0xf3, 0x5e, 0xbc,
  0x3e, 0xec, 0x93, 0x3b, 0x6c, 0xf2, 0x6f, 0x3d, 0xbf, 0x1e, 0xda, 0xbb,
  0x83, 0x01, 0x60, 0xbd, 0xa7, 0x21, 0xe5, 0x3c, 0x4d, 0x97, 0xf6, 0x3d,
  0x08, 0xad, 0x0c, 0x3e, 0xb4, 0x36, 0x60, 0xbc, 0xb1, 0x4e, 0x8c, 0xbd,
  0x59, 0x4f, 0x8f, 0xbd, 0x3b, 0x81, 0x3f, 0x3c, 0xeb, 0x4d, 0x8e, 0x3d,
  0x7d, 0x01, 0x73, 0x3d, 0x8f, 0xda, 0xb2, 0x3d, 0x48, 0x6e, 0xb2, 0xbd,
  0x54, 0xfd, 0xa9, 0x3c, 0xd0, 0x04, 0x6e, 0x3d, 0x20, 0xe6, 0xc9, 0x3d,
  0x5f, 0x50, 0xb6, 0xbc, 0xb2, 0xe5, 0xe3, 0x3a, 0xad, 0xbd, 0x73, 0x3c,
  0xe0, 0xda, 0x09, 0xbd, 0x52, 0x61, 0xba, 0xbd, 0x24, 0xc2, 0xba, 0xbc,
  0x77, 0x8c, 0x07, 0x3e, 0xa2, 0x8e, 0x68, 0x3d, 0xd1, 0x59, 0x96, 0xbd,
  0xc2, 0xac, 0x2e, 0xbe, 0xdf, 0x57, 0x71, 0x3c, 0xe3, 0x1d, 0x32, 0xbe,
  0xce, 0xbe, 0xe6, 0xbb, 0x36, 0x34, 0xcb, 0x3d, 0xd2, 0xd5, 0x16, 0xbd,
  0xab, 0xa0, 0xf2, 0xbc, 0x32, 0xa0, 0x00, 0x3d, 0x9f, 0xb6, 0xf9, 0x3d,
  0x86, 0x12, 0x97, 0x3d, 0x81, 0xb0, 0x76, 0xbd, 0xfb, 0x64, 0xdc, 0x3d,
  0xb0, 0x67, 0x60, 0x3d, 0x83, 0x70, 0x9e, 0x3d, 0xbd, 0xad, 0xd8, 0xbc,
  0xf2, 0x52, 0xa8, 0xbd, 0x99, 0x2b, 0xbe, 0xbd, 0x48, 0xed, 0x5d, 0x3c,
  0xc4, 0xd1, 0xaf, 0x3d, 0xef, 0xc4, 0xe1, 0xbd, 0x12, 0x63, 0x1b, 0xbe,
  0xd7, 0x79, 0x35, 0xbe, 0xe4, 0x2a, 0xf5, 0xbd, 0x11, 0xee, 0x74, 0x3d,
  0x7e, 0x63, 0xa8, 0x3c, 0x44, 0x7e, 0xf0, 0xbd, 0xcc, 0x1f, 0x8c, 0x3d,
  0xe1, 0xaf, 0xf0, 0x3d, 0xd4, 0xa1, 0x89, 0xbd, 0x41, 0x1a, 0x75, 0x3d,
  0x98, 0x08, 0x22, 0xbe, 0xe5, 0xeb, 0x0b, 0x3d, 0x43, 0x29, 0x54, 0x3d,
  0x8d, 0x19, 0x04, 0x3e, 0x6f, 0x50, 0x01, 0xbe, 0xd4, 0xf5, 0xdf, 0xbd,
  0x28, 0xc3, 0x3b, 0xbe, 0xd0, 0x79, 0x8b, 0xbc, 0x79, 0xd8, 0xa7, 0xbd,
  0xc3, 0xc6, 0xff, 0xbd, 0x53, 0xb0, 0x8c, 0xbd, 0xa8, 0x8e, 0x5d, 0xbc,
  0xaa, 0x7e, 0x0b, 0x3e, 0x21, 0x6f, 0x03, 0x3e, 0x0a, 0x53, 0xc9, 0x3c,
  0x1e, 0x57, 0x02, 0xbd, 0x86, 0x45, 0x82, 0xbd, 0xb7, 0x4c, 0xf5, 0x3d,
  0xc8, 0xf8, 0xd0, 0x3d, 0x3e, 0xca, 0x1c, 0x3d, 0x97, 0x99, 0x28, 0xbd,
  0x42, 0x5c, 0x19, 0xbe, 0xfb, 0xb6, 0x38, 0xbe, 0x13, 0x60, 0xea, 0x3d,
  0x07, 0x66, 0x05, 0x3d, 0x83, 0x2a, 0x01, 0x3e, 0x53, 0xc7, 0xcf, 0x3d,
  0xb6, 0x56, 0xcc, 0xbd, 0x59, 0xfd, 0x39, 0xbd, 0xda, 0xc9, 0x2f, 0xbc,
  0x52, 0xef, 0x0a, 0x3e, 0x5e, 0xaa, 0x55, 0xbd, 0xcc, 0x61, 0xeb, 0xbb,
  0xed, 0x1a, 0xd6, 0xbc, 0x4b, 0xd0, 0xea, 0x3d, 0x2e, 0xc2, 0xf2, 0x3d,
  0xba, 0x4d, 0x99, 0x3b, 0x6f, 0x34, 0xfe, 0xbc, 0xbc, 0x5e, 0xcb, 0x3d,
  0x34, 0x69, 0x2c, 0xbe, 0x19, 0xc7, 0x96, 0xbd, 0x30, 0x91, 0x07, 0xbe,
  0xf3, 0x98, 0x87, 0xbc, 0x9c, 0x67, 0x95, 0x3c, 0x41, 0x8e, 0x90, 0x3c,
  0xdf, 0x63, 0xf7, 0xbd, 0x67, 0xa3, 0x07, 0x3e, 0xfe, 0x93, 0xda, 0xbc,
  0x1e, 0x34, 0x9b, 0xbd, 0xa0, 0x2d, 0x41, 0x3c, 0xf1, 0xce, 0x6f, 0xbd,
  0x44, 0xc3, 0x09, 0xbe, 0x09, 0x53, 0xbc, 0x3d, 0x4b, 0xb7, 0x0c, 0xbe,
  0x5a, 0x42, 0x0e, 0xbe, 0xfb, 0xae, 0x18, 0xbe, 0x3f, 0xef, 0x91, 0xbd,
  0xcd, 0x4f, 0x85, 0xbd, 0xee, 0xe9, 0xaf, 0x3d, 0x71, 0xda, 0x74, 0x3d,
  0xa9, 0x3f, 0x31, 0xbe, 0x3a, 0x49, 0x96, 0xbd, 0x9a, 0xc3, 0xad, 0xbd,
  0xa0, 0x1d, 0x57, 0x3c, 0xb9, 0xee, 0x08, 0x3c, 0x1b, 0xa2, 0xe6, 0xbd,
  0x0a, 0x9f, 0xb6, 0x3d, 0x1b, 0x90, 0xee, 0xbd, 0x02, 0x3d, 0x7d, 0xbd,
  0xe2, 0xcb, 0xd3, 0x3c, 0x26, 0x60, 0x43, 0xbd, 0xb5, 0x2e, 0xc6, 0xbd,
  0xfe, 0x96, 0x03, 0x3e, 0x10, 0x45, 0x00, 0xbe, 0x52, 0x7a, 0xc6, 0xbd,
  0x3b, 0xe7, 0xd2, 0x3c, 0xa2, 0xe7, 0x69, 0x3d, 0xa2, 0x2f, 0x47, 0xbc,
  0x92, 0xbc, 0xd2, 0x3d, 0x0c, 0x2e, 0x8f, 0xbc, 0x85, 0xa2, 0x0a, 0x3a,
  0x5a, 0x2b, 0x33, 0x3d, 0xe3, 0x97, 0xcf, 0x3d, 0x72, 0x11, 0xf3, 0xbc,
  0x66, 0x02, 0x92, 0x3d, 0x19, 0x5e, 0x72, 0x3d, 0x55, 0x81, 0xcd, 0x3c,
  0xc0, 0x78, 0x6b, 0x3c, 0xf8, 0xf0, 0xc0, 0x3c, 0x4b, 0xf5, 0xb2, 0x3d,
  0x1e, 0x6a, 0x7b, 0x3d, 0xa0, 0x2e, 0xaf, 0x3d, 0xaf, 0x07, 0xb5, 0x3d,
  0x0e, 0x70, 0xfe, 0x3d, 0xa0, 0xef, 0x89, 0x3d, 0xfc, 0xd9, 0x19, 0xbd,
  0x66, 0xe4, 0x1c, 0xbd, 0x3d, 0x80, 0x17, 0x3d, 0x80, 0x0b, 0x5b, 0x3d,
  0xdc, 0x72, 0xfe, 0x3c, 0xae, 0x46, 0x82, 0x3d, 0x16, 0xb4, 0x53, 0xbb,
  0x45, 0x31, 0x02, 0xbd, 0x56, 0xb2, 0x9c, 0x3d, 0x40, 0x90, 0x3a, 0xbd,
  0x78, 0xe4, 0x5f, 0x3d, 0x5c, 0xfb, 0x00, 0x3c, 0x25, 0x3c, 0x4d, 0xbd,
  0x97, 0x58, 0x5f, 0xbc, 0x60, 0xb8, 0x25, 0xbc, 0x63, 0x72, 0xee, 0x3c,
  0xb0, 0x3f, 0x95, 0x3d, 0x72, 0x99, 0x10, 0xbb, 0xcc, 0xde, 0xe2, 0x3b,
  0xcf, 0xee, 0xbd, 0x3d, 0xc2, 0xda, 0xd6, 0x3d, 0xa5, 0x98, 0xa7, 0x3d,
  0x7f, 0xe9, 0x3b, 0xbc, 0x73, 0x5b, 0x14, 0x3d, 0x6b, 0xb1, 0x84, 0xbc,
  0x3d, 0xfb, 0xd8, 0xbd, 0xba, 0x2d, 0x2f, 0x3c, 0x43, 0x48, 0x2f, 0xbb,
  0xea, 0xa7, 0xc4, 0xbd, 0x73, 0x1d, 0x74, 0x3b, 0xd6, 0x0d, 0xac, 0x3b,
  0x1f, 0xe6, 0x3d, 0x3c, 0xcf, 0xb1, 0xb2, 0xbd, 0x16, 0x99, 0xb0, 0x3d,
  0xbd, 0x12, 0xcb, 0x3d, 0x4b, 0xda, 0xcc, 0x3d, 0xff, 0xec, 0x4a, 0x3b,
  0xdf, 0x64, 0x94, 0x3d, 0xbb, 0xff, 0xe7, 0xbb, 0x2d, 0x9e, 0xa1, 0x3d,
  0x58, 0x60, 0xd2, 0x3d, 0xf9, 0xc5, 0xba, 0x3d, 0x53, 0x57, 0x56, 0xbb,
  0xfd, 0xc6, 0x95, 0xbc, 0x66, 0xc6, 0x02, 0xbd, 0xc3, 0x83, 0x05, 0x3c,
  0x6f, 0x36, 0x0c, 0x3e, 0x53, 0x9d, 0x06, 0x3c, 0xa7, 0x28, 0x35, 0x3d,
  0x18, 0x25, 0x4f, 0xbd, 0x50, 0xf2, 0xa1, 0xbd, 0xba, 0xf3, 0x49, 0x3d,
  0xac, 0xa4, 0x2a, 0xbd, 0xb6, 0x28, 0x7c, 0x3d, 0x1d, 0x22, 0x81, 0x3d,
  0xbd, 0x34, 0xd9, 0x3d, 0xf0, 0xfc, 0x53, 0x3d, 0x9f, 0x9f, 0xef, 0x3d,
  0x9f, 0x28, 0xb9, 0x3c, 0x29, 0x77, 0xf9, 0xbc, 0xad, 0xa2, 0xf6, 0x3d,
  0x59, 0x23, 0x66, 0x3d, 0x85, 0x60, 0x6f, 0x3c, 0x2d, 0xc0, 0x63, 0x3d,
  0x7a, 0x20, 0x2a, 0xbd, 0x70, 0xba, 0xf1, 0x3d, 0x73, 0x12, 0x8b, 0x3d,
  0x37, 0x96, 0x40, 0xbd, 0xe2, 0x31, 0x9c, 0x3d, 0xc6, 0x42, 0x83, 0x3c,
  0xd8, 0xa4, 0x39, 0x3d, 0x69, 0x09, 0xa9, 0x3d, 0xa2, 0xfe, 0x86, 0x3c,
  0x7e, 0xde, 0xba, 0xbc, 0x9d, 0x60, 0x26, 0x3d, 0x4c, 0xb5, 0x14, 0xbd,
  0xb3, 0x00, 0x41, 0x3c, 0xf2, 0x11, 0x1f, 0x3d, 0x6b, 0x5b, 0xa4, 0x3d,
  0x5f, 0xe4, 0xb5, 0x3d, 0x20, 0x28, 0xa0, 0x3d, 0x9b, 0x9f, 0x97, 0xbd,
  0x90, 0x7e, 0x62, 0x3d, 0x6c, 0xb4, 0x5f, 0x3d, 0xd4, 0x1c, 0xfb, 0x3d,
  0x68, 0xc2, 0x89, 0x3d, 0x73, 0x86, 0xbd, 0x3d, 0x95, 0x5a, 0x3c, 0xbc,
  0x35, 0xa4, 0xa4, 0xbd, 0x04, 0xfb, 0x81, 0x3d, 0x48, 0x5b, 0x4a, 0x3d,
  0x3e, 0x7c, 0x35, 0x3d, 0xa2, 0x41, 0xaf, 0x3d, 0xbf, 0xc9, 0x40, 0x3d,
  0xb4, 0x71, 0xd7, 0x3d, 0x23, 0x99, 0xf1, 0x3d, 0x87, 0x20, 0x9f, 0xbc,
